
/**
  ******************************************************************************
  * @file    network_data.c
  * @author  AST Embedded Analytics Research Platform
  * @date    Sun Jun 12 18:32:54 2022
  * @brief   AI Tool Automatic Code Generator for Embedded NN computing
  ******************************************************************************
  * @attention
  *
  * Copyright (c) 2021 STMicroelectronics.
  * All rights reserved.
  *
  * This software is licensed under terms that can be found in the LICENSE file
  * in the root directory of this software component.
  * If no LICENSE file comes with this software, it is provided AS-IS.
  ******************************************************************************
  */
#include "network_data.h"
#include "ai_platform_interface.h"

AI_API_DECLARE_BEGIN

AI_ALIGNED(32)
const ai_u64 s_network_network_weights_array_u64[ 3925 ] = {
  0x3d96a7fd3d3c6206U, 0x3d0208623cbebd9cU, 0x3d84f92b3d2b28aeU, 0x3d890c1dbc773770U,
  0x3c60bda03d9e3841U, 0x3d0395ee3c9f3654U, 0x3d0dc3eebd8fc112U, 0x3ba976bfbd9b0562U,
  0xbd61d8f0bd87676dU, 0x3da567933d836265U, 0xbc418cd0bc225860U, 0xbcad37d0bd333b9cU,
  0x3d1389e83cfca9b4U, 0x3a0ee980bc6f8be8U, 0xbdaf0c193c1b7068U, 0xbce849023cda6720U,
  0x3cbd1b8ebca26b98U, 0x3c54fad33da3ca26U, 0x3b177fccbc1be4faU, 0x3a0f3d1dbd7b4e8bU,
  0x3d976741bd980f34U, 0xbccb838cbc37508fU, 0xbd9ddc9bbc9eede6U, 0xb95d3d8abd5f0800U,
  0x3cbdf161bcc6f8e6U, 0x3d03ea52bd312899U, 0xbc5b5170bcddc454U, 0x3c9cc3443bb78160U,
  0xbd3491c9bd68aac2U, 0xbd0770303d0c91f1U, 0xbd2bc38abc7444d8U, 0x3d4d8d3fbc962d33U,
  0xbe1c8c78bd892be6U, 0xbe05c40dbd1bd180U, 0xbe38cf74be2bbe8aU, 0xbe8f9f14be472cd0U,
  0xbe9113a1be987e2fU, 0xbe5c18f1be26268eU, 0xbe22171ebe239e3cU, 0xbb0b2b23bd3a5f7aU,
  0xbd2eb0e43d00c776U, 0x3d77b93e3c812294U, 0xbdab990abd25e4f2U, 0xbd1e0e343da98928U,
  0x3cebcd3cbdacf9e7U, 0xbd5efaeaba74d9aeU, 0xbdf94426bdb79d62U, 0xbe06c779bde0ee57U,
  0xbe08644fbde25b08U, 0xbe4aad6cbe53d891U, 0xbe38bf04be235b88U, 0xbe8521f7be875117U,
  0xbe957387be42805aU, 0xbd5a7c19be8051d1U, 0xbdbe66fdbdfc1d25U, 0x3d4aec4a3c0a35a9U,
  0x3d8c4babbc9c0248U, 0x3d195c18bd1ba84eU, 0xbd7ef7523d6fb2c6U, 0xbe57d504bd978dbaU,
  0xbdae0232bdaa478fU, 0xbdc74fd7bd773571U, 0xbbc7795cbde13c26U, 0x3cacec92be1ae218U,
  0xbddc3ba9bd6efd03U, 0xbdc8c9a9bd62173fU, 0xbe09d2e8be063d3dU, 0xbe739a03bd8745d6U,
  0xbd54386dbdce47bbU, 0x3d0f8dbfbd87aa78U, 0xbc2748283d95b20bU, 0xbc998283bdad540bU,
  0xbe380c23bd1f1aa9U, 0xbd910469bdf9f530U, 0xbd6ba61abdd581e2U, 0xb9a8254bbd16f8f7U,
  0x3c2b13703cdd097cU, 0xbb546a783e29e8b3U, 0x3dd02e0c3e09168aU, 0xbcbc3bd93dd7a9c7U,
  0xbe0442e8bd1e1921U, 0xbe0d9c60bdf29c8eU, 0xbe63c810be99c4eaU, 0xbccadc38be1d9eddU,
  0xbcdf90e53d83ad77U, 0xbd2645a3bd2f09c1U, 0xbd445421be18f5c7U, 0xbdcd3fe3bddded68U,
  0xbd931cbbbdabd1b4U, 0x3cab0cefbe02ad71U, 0x3bad694b3d55b0daU, 0x3c01880d3e14c7f1U,
  0x3e1af24f3e0a19a7U, 0x3dec80dc3e273f15U, 0x3e0eb463bd3f7d4bU, 0xbe1cffdd3d724d76U,
  0xbecaae9bbedc2cd7U, 0x3cb7b43abe26eb55U, 0x3d6e9103bd17ff43U, 0xbcd1b308bc5ebfe8U,
  0xbe0fc4a4be58c301U, 0xbe1bbf93bd803cacU, 0xbdcded3cbe319c45U, 0xbc1d2f1fbdc24e64U,
  0x3d3c49aa3cfbf494U, 0x3dcbdb783c8549f7U, 0x3e06595e3e21d896U, 0x3dba670d3e465decU,
  0xbafb83153d44fe33U, 0x3d6fba073d26b364U, 0xbece841dbe9587aaU, 0xbd726835be12c378U,
  0x3c246a223d54f49cU, 0xbc8e42583d418b0dU, 0xbe3f54cebdd0eb52U, 0xbde967a3be01b155U,
  0x3d1ffe64bd6cd38bU, 0xbd272d3c3d2eb2f7U, 0x3dc34f93bd52af30U, 0x3da8529e3cb42fadU,
  0x3e0cafad3e9f7bdaU, 0x3dc1da7a3e35925fU, 0x3d639c6a3db943e8U, 0x3e3283133e170d9aU,
  0xbf0638abbe15bbeaU, 0xbca39009be62854bU, 0xbd91603fbd9273cdU, 0xbd52b84abda6d0dbU,
  0xbdd48085be0515b6U, 0xbd919f9dbe1a9a5bU, 0xbda535cfbe087fefU, 0xbc5e00eebbda4a7aU,
  0x3d0ce6d63ca49c2aU, 0xbd20ed133dbb7909U, 0x3e34b8bc3e354c78U, 0x3de1b7d33e5758afU,
  0xbc920ed43d919505U, 0x3e1ebbf63a188866U, 0xbeba2d68bc487a09U, 0xbd715a35be2f769dU,
  0xbb8ce3a2bd4c27a5U, 0xbdecfce3b9dfe84fU, 0xbdfe39d2be3f33c7U, 0xbe0b107cbde9b8b2U,
  0xbc51bcc5bd01f18dU, 0xbd96e65abd915e43U, 0x3d2195e9bdc918c9U, 0xbe2b596ebdb5e9f9U,
  0x3d100169be186921U, 0x3e387ee43e4b1c7eU, 0x3dfd24673e1877dfU, 0x3e72849a3db74418U,
  0xbe6aeb543dc1df67U, 0x3d8e35afbe0ed4a9U, 0x3be2004e3d802338U, 0xbdbd55153b6588ddU,
  0xbdffdb07bdac1813U, 0xbd08dd32bc2f3bacU, 0xbe1d111ebd9a6d02U, 0xbc94a936bd3b2e7fU,
  0xbe111deebcdc6905U, 0xbf00d846bec1dd61U, 0xbe0ffe49bed72a11U, 0xbd003fc53c08ff79U,
  0x3d82e97abb9fc823U, 0x3e847dbc3e45dc60U, 0xbe60e4143e4cccf7U, 0x3c86b2b1bdaaf13dU,
  0xbbda79ae3d126cccU, 0xbdbf5387bd56df61U, 0xbd9ce6a2be25cb65U, 0x3d42afd13ce96d31U,
  0xbd99d34abcb18fb4U, 0xbc8288cc3ce2c3ebU, 0xbe32d2afbd5710f0U, 0xbf23a0f9beed0f67U,
  0xbe830570bf1896f6U, 0x3cf4e979be264f38U, 0x3dd4fbe03c6040a0U, 0x3e7a0eb73e5b6f83U,
  0xbdb12c923e92f3beU, 0x3d995d7a3c884d16U, 0xbcede444bd069fd1U, 0xbd3024f0bdb0b440U,
  0xbd79eeb6bdb8205eU, 0x3cdaa8733e037a36U, 0xbd25c56e3d1b2639U, 0x3d6112e4bcab27a3U,
  0xbec37f7ebd3cf91dU, 0xbf2533a5bf205c7bU, 0xbe8af3e4bf0f9418U, 0xbdf5b18bbe1792d5U,
  0xbd334391bdb0e0b9U, 0x3e57e5e53e0c90a8U, 0xbd8ef0f23e4204bfU, 0x3d9a27953ce3de14U,
  0xbbad38753c6aae9dU, 0xbd3c97ddbd6efc50U, 0x3d8ee956bd403846U, 0x3e5c3d2e3d9640c1U,
  0x3dbe5b443e1a8fc7U, 0x3d8ecbb43d521775U, 0xbed227f7bdb2283cU, 0xbf1ab43abf38c57dU,
  0xbe8b19e3bf0825bdU, 0xbdb040f7bd8b960dU, 0x3df9c239bd4f7f3bU, 0x3e9269cd3e1df324U,
  0xbca0fbca3e331915U, 0xbcdcb7c3bd22501fU, 0x3cc1302a3d756fb6U, 0xbdc1decabd792548U,
  0x3da7c660bcb62a85U, 0x3e72f7ae3cf61443U, 0x3e18a8ec3e14b569U, 0x3d94c1dd3e76199aU,
  0xbf144d05be5b5f92U, 0xbf1e9971bf214785U, 0xbe1d50bdbef0d9afU, 0xbd56d192be1a3cf9U,
  0x3dbc056bbcbfb072U, 0x3e51d3ff3dfceb17U, 0xbcf3aff73e185633U, 0x3d6625f3bd74cea9U,
  0xbcb30a4ebda9edc4U, 0xbdf14bedbd91f411U, 0x3e429ad0bd4c0e4cU, 0x3d8b3b7f3e119648U,
  0x3e5c8a973dbcfbdfU, 0xbd2260f03e14c9c2U, 0xbf305a73be9e5ac6U, 0xbefefeedbf290e0bU,
  0xbe133144bead616fU, 0xbc4d823e3cadc615U, 0x3d335eb83c5c7fe8U, 0x3dfc6e253de9b215U,
  0xbe0d25dfba711328U, 0x3d23769abd847075U, 0xbd17152f3c7d3910U, 0xbe255257bd0f3e6dU,
  0x3df55ac13d1686d3U, 0x3e181ea33e056447U, 0x3e18082b3e082aa8U, 0xbcb096543e76fb97U,
  0xbf14f690be68c876U, 0xbe9896e6bf1bed48U, 0xbdaef0ecbdc2ed51U, 0x3b9ec89f3b8b5fd1U,
  0x3d58bfb2bd2bf654U, 0x3bd7c9bfbc4f456fU, 0xbd45dd403d1ae984U, 0xbd32eba6bd81665bU,
  0x3daf366bbcd014f4U, 0xbe3cb11a3cfd1d15U, 0xbd52ef3fbd3334beU, 0x3cae71d93d7333ccU,
  0x3e7e7dbc3e2ff730U, 0x3b5b609e3e346c33U, 0xbef5218ebe7f2fd0U, 0xbe1ba01cbeafcd54U,
  0xbd6d01e7bd8ae29aU, 0x3d18c898bd6825cfU, 0xbdb2e211bcb15983U, 0xbda8ab773dd713ebU,
  0xbe12fc65bdc73fc4U, 0xbda2f2c4bd84371eU, 0xbc84892b3c332855U, 0xbe76baf63d405fc9U,
  0x3d1c8fd2bdfee839U, 0x3ce545fc3da9bbaaU, 0x3df972d73ce5d5e6U, 0x3dd344d43e650c7cU,
  0xbe51f593bd0f06e6U, 0xbdaa7520be1c518fU, 0xbd0e332bbdb033d9U, 0xbda20488bda0d38eU,
  0x3d6bfa08bd61de03U, 0xbdde45603d8f6adcU, 0xbdd76228bdc8d8c2U, 0x3d4c0f26bdf01b63U,
  0x3c92e8223d8d7bc1U, 0xbe16fca23c63261dU, 0xbd603d36bde2efdfU, 0x3da583f03c72bae2U,
  0x3e31d53d3cb4049eU, 0x3e96149b3e6ff7f4U, 0xbc9371b53e3a2956U, 0xbd5f564b3c4526e7U,
  0xbd00971abc40f0fcU, 0xbe2d1a48be13b972U, 0xbcb4a955bd9a37e2U, 0xbd5fe5e53c928a4cU,
  0xbd50b95fbe0d8159U, 0x3c4dcd8cbd4d3cb6U, 0x3d5391d0bcb73050U, 0xbd958554bda9f73fU,
  0x3c94ea4bbdda834bU, 0x3ced2372bd4c4830U, 0x3d140e6e3bb5a498U, 0x3e4dae2f3e4b330fU,
  0x3dfe11db3e45c3b2U, 0x3d6ab357bc0a206cU, 0xbd0bd6f6bda831bfU, 0xbdd40545bd8a08d7U,
  0xbdec3e5ebdcef867U, 0xbd0a7573bdaecd97U, 0xbd979472be24b8d2U, 0x3daab1963d7748acU,
  0xbd4654adbd84c434U, 0xbe6acbc7bdccfb82U, 0xbdc387a1be27a9c7U, 0x3dab156b3cf629b5U,
  0x3d92539bbc0dbcedU, 0x3e569e2c3d506631U, 0x3e2b65c83de9a833U, 0x3d2fc5463dae57e8U,
  0xbd5695e8bca83ae7U, 0xbe1656f6bd6b47b4U, 0xbe2fed87be177b51U, 0xbe1a0b14be13fea7U,
  0x3c61c8bebda2190aU, 0x3d4c12753cfc0782U, 0xbd51babdbc223b70U, 0xbd7374393d91e08dU,
  0xbdd0bf4bbe438307U, 0x3da0e617bbe8940bU, 0x3e3607a1bc24a2a0U, 0x3e5fed3a3ddd0ad4U,
  0x3e2ee7913e82b900U, 0x3d8ef86a3e406825U, 0xbe08aef7bce53739U, 0xbe25e0bdbe8c34c2U,
  0xbe890b61be10331cU, 0xbdef82bebdbdc017U, 0xbd9f972a3c729708U, 0xbd85eac6bd476e6eU,
  0x3d05d20ebcc5e300U, 0xbbd9da103d6a8d06U, 0xbdbd448dbe044e85U, 0xbe1b6b12be6b969aU,
  0xbe0ded69bdd37e9cU, 0x3c75c4cdbdaaa4f3U, 0x3db3bc2a3c0c1796U, 0xbdb5a097bb3c3ddbU,
  0xbe2aee06be54bbd8U, 0xbe953a6ebe3de45eU, 0xbe04ba95bea58715U, 0xbd3fd9f6be57948dU,
  0x3d27911cbdcb9645U, 0xbc9c0c743d7d5c88U, 0xbd86dd493d07334aU, 0x3ce42224bd6594d9U,
  0xbd8605e43cb97210U, 0xbe627295bdd43992U, 0xbec3d859bec24ba9U, 0xbefd6167bed5abf3U,
  0xbedbebcbbeda4f32U, 0xbec3f7debedb50f9U, 0xbea4fe22bebde7bdU, 0xbe4b8d13beb25467U,
  0xbd9ce8b9be4c0678U, 0xbd4b4f1fbde3f291U, 0xbd8eefedbc6937cbU, 0x3d810db3bd7c1a9cU,
  0x3d04c6dcbda05a94U, 0xbc645398bd1e30adU, 0xbdd8e553bd9297c9U, 0xbe2656f9bd137e48U,
  0xbe488655be30af23U, 0xbe8cb0adbe1743f9U, 0xbe9177a7be541df4U, 0xbe2f6cffbe875bdeU,
  0xbe31235cbe6050d4U, 0xbdaa8255be5716ecU, 0x3c7f8d2bbdb5660bU, 0x3d98e8933cc75d41U,
  0xbd0cfd12bda4a6cfU, 0x3d9cd3633ca70d9cU, 0xbcc2302cbda0688dU, 0xbcd17180bd8369deU,
  0xbcb8f7f53caf32f9U, 0x3d038b39bc997017U, 0xbd2defa73d9a7f48U, 0x3bfe22acbdcde04fU,
  0xbdebcb67bda5115cU, 0xbdbee0b9bd0099f4U, 0x3c8240b8bc69c0efU, 0xbcf4aa70bdb292dfU,
  0xbcbe67063cf73855U, 0xbd3f828e3cf3a0edU, 0xbca4b8a03cabe8d4U, 0xbdaa34673d86a399U,
  0xbca18b503d8a2eabU, 0x3d01df183dadb0a3U, 0xbd47759c3d219902U, 0xbd71d9e8bd8328f4U,
  0xbdabff9b3d74098eU, 0xbd1747683c64a4c8U, 0x3dafab67bd84523aU, 0x3d66f49d3d8020c3U,
  0xbce7f3623ce99428U, 0xbda7733c3d3a58baU, 0x3b864660bcef5e0aU, 0x3cd9acecbc51b478U,
  0xbc9713dcbd9c5e58U, 0xbd956b703c9c5584U, 0x3ce5ed283da58445U, 0xbbe7aa303cbe6ebcU,
  0xbd000c703bb24b9fU, 0x3bbf91d4bc41385cU, 0xbdb813f5bd1e7f58U, 0xbd8a9c0cbdba88d4U,
  0xbd94a9333d7cf06eU, 0xbd1308b33dc2d8ccU, 0x3d85573c3bff1f65U, 0xbda5bba93d772a62U,
  0xbd3e1537bdaea849U, 0xbce06b233d65d2f1U, 0x3b5439a0bc92de3cU, 0xbc8c7c10bd13b6bdU,
  0xbda625013d02c36eU, 0x3c9543b33d8147e7U, 0x3c94513bbd8eb910U, 0xbd38931c3ba0d4c0U,
  0xbbe28673bdc7a2d8U, 0xbdb32ccbbc3b2c04U, 0xbda18500bd7a5d40U, 0x3cdbc6633d8c156dU,
  0xbd88c6aabcbb5c02U, 0xbb75e2f9bd26819aU, 0xbcd43f1abe17bda3U, 0xbce7b0193ce21826U,
  0xbcd2df89bc093916U, 0x3d69ab4a3d211e62U, 0x3d438b7e3c418020U, 0x3d6308cabd4c31a1U,
  0xbdb8d56e3d9f24e1U, 0xbd796b433cf82598U, 0xbe0a3bb9be294a42U, 0xbe8be848be6cf2f5U,
  0xbe3a8cf4be345ddeU, 0xbd93983dbc985e20U, 0xbe6fa862bdda4c3eU, 0xbe8a7433be66f9cfU,
  0xbdf4e41bbe73deddU, 0xbe3abfe0be2af51aU, 0xbd29fa9fbdb5ad80U, 0x3d4d8a463d63ef5fU,
  0x3d430c3fbd69c684U, 0x3cb21ee93db4567dU, 0xbd9a8c19bd862342U, 0xbe681918bdaba5c4U,
  0xbe05464bbdf02b7cU, 0xbe227a96bd7d7b1dU, 0x3d45e6fdbbc03970U, 0x3d24e2053db98545U,
  0xbdb77a2fbc7be9d5U, 0x3c73fb6abd93bd83U, 0x3c7dd0dc3dc20f69U, 0xbd7de03cbb72b31dU,
  0xbdfb4f51bd808034U, 0xbd5160e0bc1f154bU, 0xbda5a4d03da236c9U, 0xbd3f67d9bd69626cU,
  0xbcc491a03d5940b1U, 0xbe16c2d0bde86178U, 0xbe8a11babe271381U, 0xbd8deb33bddf563eU,
  0x3d785e56bd2ff055U, 0xbcceabbf3d082aa8U, 0xbe068f9abdf196d5U, 0x3d614f43bcdbe3f9U,
  0x3e7570a83dd45acfU, 0x3cbdb6f83d8662c6U, 0xbdc823103d137fcbU, 0xbd39e21c3d2015cbU,
  0xbd295f2bbcef41e0U, 0xbd6776d1bce21c9fU, 0xbd877088bd8a97ecU, 0xbe86faf8be63b01eU,
  0xbea533bebe87e030U, 0xbdde80a4be767991U, 0xbde06fa5bde916adU, 0xbe55054abe23b95cU,
  0xbe7a26e4be8a859eU, 0xbe150f19bd9fe9a7U, 0x3d0a144a3aa07910U, 0xbd6f46623d7598d2U,
  0xbe3d35e5be2d4843U, 0xbd396a7b3bcb7274U, 0x3ba70a63bcf758f6U, 0xbce81fd93ca55f2dU,
  0xbe1183fabdc4862fU, 0xbe594beebe41c37cU, 0xbe94c487be8b2ae6U, 0xbe785d43be515c25U,
  0xbe2490e4be0d3a71U, 0xbe6fc4b7be2d59b8U, 0xbe84eddebe3579beU, 0xbd5827e9be75d155U,
  0x3c967e4abaf31ef4U, 0xbdf7e4a8bdd18392U, 0xbe4ca545beae6192U, 0x3a75b8a0bd8bc6e6U,
  0xbd81f29c3d77155fU, 0x3d221915bdb1af96U, 0xbe258919bc8c0381U, 0xbea377aabe8250d0U,
  0xbeb18627be80baa4U, 0xbe1e4febbe8d8518U, 0xbda7529ebe133929U, 0xbc9209333c8daab2U,
  0xbd87bc00bcde2b21U, 0xbe2fd7ddbd804f7eU, 0xbe68d93dbdcba7dbU, 0xbeb116b2be8729feU,
  0xbec59feabe9bb50cU, 0xbdb727f3bdf7fee9U, 0xba7362ca3c9722ebU, 0xbde993cb3cd8102eU,
  0xbdf28a62bd7ef676U, 0xbe68839bbe33d296U, 0xbe9f8fa6bea228e2U, 0xbe02ef21be8f9fbbU,
  0xbc6fd355bd36dc2eU, 0x3e8eefa33e56cc79U, 0x3d3a18993e04192dU, 0xbe68d0efbd84cd67U,
  0xbe9cfd40be85bd2cU, 0xbecfc6babebd2298U, 0xbe6678debea7e2ccU, 0x3c839a97bdf8e150U,
  0xbd47b46bbb942231U, 0x3b2e4c4bbcd2e4b6U, 0xbe153126bd7c008eU, 0xbe3a638abe961eefU,
  0xbe3d1bbcbe215aa7U, 0xbdaf8a54be20c075U, 0x3e4ae0cfbdade056U, 0x3eff9c153ed350d8U,
  0xbdb4eeb13e00a622U, 0xbe18d5cabe4e9296U, 0xbec93739be8abdc0U, 0xbed21c5cbecd9f94U,
  0xbe81f6acbed1a8d8U, 0x3d827b09bd7ce63eU, 0xbb1cc2903daf2929U, 0xbdf5f480bd916256U,
  0xbe24906bbde2ff48U, 0xbe7ae9a8be8125a8U, 0xbe80a06dbe80d506U, 0xbe4e01b2be689f79U,
  0x3e0865eebe563691U, 0x3ef7ed9c3f05e9edU, 0xbd6ba0e13e3d2cfcU, 0xbe7f50d1bdde3373U,
  0xbea73158be4bcccaU, 0xbe9ea8aabe973ea1U, 0xbdd2d65cbe8d5b76U, 0x3d19c693bd7edd96U,
  0x3d3200883ccecdbeU, 0xbc13f03fb7cc2d8fU, 0xbd896234bbcec7f5U, 0xbe695342be2b67bbU,
  0xbe8499c5be605cfcU, 0xbed0d17cbe808955U, 0x3e0fbc4bbe38aa39U, 0x3eef42053f02cf62U,
  0xbd1c8fa13e1babc7U, 0xbe59aafabe13e9d2U, 0xbe58a29cbe34100fU, 0xbe2c7055be2f4c2aU,
  0x3c0966f3bdb4fcf7U, 0x3d4167883cc39a29U, 0x3d8cc2f4bd77de56U, 0x3d322dc6bcf7c102U,
  0xbccaba633c82cd20U, 0xbe7ed992be3c1808U, 0xbe82f64bbe1db200U, 0xbf0d24cdbec9cdbeU,
  0x3e470254be47db71U, 0x3e9df06e3f075dedU, 0xbc0460eebd21f2feU, 0xbe9a1f8ebe44ffb4U,
  0xbe84797abe5a6fabU, 0xbe569552be8f5d24U, 0xbdf3da88be3d0c7fU, 0xbd947afe3c876e64U,
  0xbcbb663f3d915758U, 0xbb47745b3d683212U, 0xbd1e7e54bced55fdU, 0xbe14db92be37d98eU,
  0xbe48c9f1be01ada3U, 0xbee24c6fbf0d7f73U, 0x3eb4d451be440944U, 0x3ea220ca3ef88b7eU,
  0xbe813ead3ca92054U, 0xbed015a1bee30c39U, 0xbe649bc8be959211U, 0xbdee3b87be9ac234U,
  0xbceaa25fbd990d72U, 0x3d089ab638e5b4bdU, 0xbd28db62bc040797U, 0xbdb6b3b53cac9f2bU,
  0xbdbf2c52bde7e3a1U, 0xbe630b8cbe884238U, 0xbec42e33be75aa0fU, 0xbe5b5989bed0563fU,
  0x3eb11e04bd7fa4ceU, 0x3e611a013ef436daU, 0xbecd7ac0bdbacd17U, 0xbed3c907bef0ecb4U,
  0xbe99ce94bec096adU, 0xbe9ac69ebe821ec9U, 0xbe1ea6d3be3a8a27U, 0xbda63af9bdb53bfeU,
  0xbd8ee27f3becc1c4U, 0x3d28b9763d7a8638U, 0xbe44938dbc2d84ebU, 0xbed09f00beaa61c9U,
  0xbe8285b3bea79ccdU, 0xbde0a9e1be06dadcU, 0x3e9cc4c6bca39dd9U, 0x3da50c613ec0a7f7U,
  0xbefaff50be81100bU, 0xbeeea71abf1c2eafU, 0xbe67880bbea01000U, 0xbe394e91be410ae7U,
  0xbdbf57d3be7740adU, 0x3d1cf73fbc6c32c8U, 0x3d8f0452bcb4bec4U, 0x3c985ba73d9689a1U,
  0xbe7e8680bd2d0f93U, 0xbec04525bebdf62cU, 0xbe2daa96be93b2dcU, 0xbe2b6bf9bdf5639dU,
  0x3eb83b713b91f2d4U, 0xba940b2d3e9788d4U, 0xbedd99fabeb5e2baU, 0xbea5b82bbea4e719U,
  0xbe44806cbe6a7d58U, 0xbdd53930be0f601aU, 0xbd869a03bdf1c2f7U, 0xbdb5cc78bdeb15fbU,
  0x3c3735d3bd84c83aU, 0xbbc4ada4bcfa2935U, 0xbed87f23bded508cU, 0xbe950f58bf0e25d3U,
  0xbd8ae1fcbe050b63U, 0xbd212136bdb4d650U, 0x3e8540e73d80afcfU, 0xbe09a39d3e5d789fU,
  0xbe586802be89c99fU, 0xbe47f7b4bdf454d0U, 0xbe01beafbd4185fdU, 0xbe835939be2b734dU,
  0xbdf7dfbebe3f75acU, 0x3d8c98aabdc235f7U, 0x3d33d010bd7f7798U, 0xbe2abf3e3ce67422U,
  0xbedc10e1be920355U, 0xbe212450be7f21afU, 0xbd5bf61fbdbfa85eU, 0x3cf0df69bdc36b1fU,
  0x3d8cc9c9bd3c7473U, 0xbdc66187bcacf913U, 0xbde7a3a93d121df5U, 0x3c1dbe9f3c8993d9U,
  0xbd4e5f62bdefc656U, 0xbe4868e4bdfd8583U, 0x3c276724bd52be2aU, 0x3d59fa80bbc39211U,
  0x3c959a7abd598065U, 0xbdac8daa3d5eedaeU, 0xbe5ce30dbe2bc4deU, 0xbca06652bdf55e60U,
  0xbc9205babcaa1ef2U, 0xbd3d2204bc55c6e5U, 0x3c46cb203d36d650U, 0xbdac8c5e3d5216bfU,
  0x3d8833ecbad686ccU, 0x3d4ce3ac3e22b78cU, 0xbe0b5df63d0f2182U, 0xbe64aacabd9fc9f3U,
  0xbd9f2ab0bdec0aabU, 0x3d850f09bda1bcd4U, 0xbb71cf103d956602U, 0xbb3bf6a13c706729U,
  0xbc0d06423b8c479cU, 0xbce3a3ea3c68aa85U, 0xbccfc3b13d0b0f75U, 0xbe01f2913dab7088U,
  0xbe842e3abe6a6176U, 0x3d9410d3bdf77289U, 0x3e40d36e3c67eeecU, 0x3cafa64f3dd21ef0U,
  0xbda357e53c805d0dU, 0xbe51558cbe1c1d83U, 0xbd901b78bcfc9b93U, 0xbd016bc9bda1150dU,
  0x3d54932bbcb6b9f3U, 0xbc0efbc2bd431417U, 0x3e809a45bdbb229fU, 0x3d10c0493e681aacU,
  0x3cfd18aa3d99baa0U, 0xbe71c856bd83e688U, 0xbe745fddbea82a7cU, 0xbc53a22abe0151c3U,
  0x3e2377963d910360U, 0x3de1cf513d4639b1U, 0xbd25becbbdd17448U, 0xbdfe3812bdcfeee9U,
  0xbc823092bd9761eeU, 0x3cffc97e3cda1590U, 0x3b5698203d4dbc06U, 0xbdd845983da3a01bU,
  0x3e230989bc642b0fU, 0x3e1ad99d3e26ea6dU, 0xbdbb3fab3d20688aU, 0xbe83bc27bddb275cU,
  0xbe43ac8ebdff1f7eU, 0xbc06b834bdf0832cU, 0x3e3458ab3e204559U, 0xbde844093ce3e363U,
  0xbe1a4e73bd41badaU, 0xbda83675be2ff446U, 0xbd42490a3c212a46U, 0xbca4cb683d8d2b4fU,
  0xbd3e201f3bc959e0U, 0xbb81d8173d9ec53eU, 0x3da2fb0dbde437afU, 0xbdd66e16bcf40cc1U,
  0xbe717e5bbe327af2U, 0xbea01c4bbe8eb381U, 0xbe98d411beac3e94U, 0xbe5c6e9abea779e9U,
  0xbd947705be9024c8U, 0xbde4d4d2bd6945d6U, 0xbd22bd6cbc5db27eU, 0xbd891e3dbd285be5U,
  0xba93a63d3c662356U, 0x3d80d7373daeb483U, 0x3d5630c63d0e893eU, 0xbd62674bbd6122beU,
  0xbdcf76dcbe0960efU, 0xbe8470c4be18800bU, 0xbec7f56ebe903e3aU, 0xbefbc451bed34c82U,
  0xbee41974bec6a219U, 0xbee27005bec56493U, 0xbea1ce75bebef324U, 0xbe166090be616644U,
  0x3d08918abdea30eeU, 0x3cdcbdab3cb7a8eaU, 0x3d8a04ec3d3c3973U, 0xbd8b29b33a83a974U,
  0xbd6163e3bcc13540U, 0x3d986657bd976fc9U, 0xbd14842bbd0c933aU, 0xbd3f113d3cea306dU,
  0xbdbb4c20bdfdf4ddU, 0xbe824e8ebe727877U, 0xbe9c323bbe3058afU, 0xbde0407fbe692dd9U,
  0xbd9858cebd78acfeU, 0xbd34d168bd8eff9aU, 0xbcc16cb3bda5549aU, 0xbc72f0a73d8de86dU,
  0xbc2a81c43d75cfd7U, 0xbcfbcdd23d320dd6U, 0x3d62d90e3d1b249eU, 0x3da5cd613d87c497U,
  0xbd40b5653d494aa5U, 0xbc2cf068bc63d198U, 0x3d2aec2d3d982e6fU, 0x3bf722cbbd4496abU,
  0xbd94eca43d3df633U, 0x3d3b8ec8bd465d9fU, 0xbda7cb40bdbc48c2U, 0x3d26a5723cea8a81U,
  0xbd60ae08bd967416U, 0xbd122d4c3d5a48d8U, 0x3da7a09f3afbbfc0U, 0x3d0a280e3da1cd57U,
  0x3d9c679fbaa554c0U, 0xbd391b1dbb60db60U, 0xbcc4f91cbd19be03U, 0xbd9c44ab3bde8370U,
  0xbd357db63d45c282U, 0xbc925e103d163358U, 0xbd77ae853d41f2a4U, 0xbd147257bd93acfcU,
  0x3d65e9aebbceac30U, 0x3d1df3eebd694572U, 0x3bbcaf90bd9c82faU, 0x3d8e3351bd1c10f5U,
  0x3c578c48bd8e82c7U, 0x3bcae7a0bd430f82U, 0xbc0e16d03d1a1e4aU, 0xbd34668f3a66a500U,
  0xbad3c259bb24387aU, 0x3d8ed3a83da3dd9cU, 0xbda5676c3d649c67U, 0xbd0a12e1bdaabb72U,
  0xbe0f526abcf8ca33U, 0x3d47041dbdb782d4U, 0xbd9823333bcfae01U, 0xbd8346a0bdea502fU,
  0xbda9d154bd0ad3d7U, 0xbc83c1b13ceef105U, 0x3da0a7b73d4038beU, 0xbdb067143ba551d0U,
  0x3cb0b9183d06b5f6U, 0x3cb2bbc6bd2c43d8U, 0xbd923a653b146de8U, 0xbcf9a4cf3bb50405U,
  0x3d183c18bd347275U, 0x3d421c103d688e24U, 0x3cf16487bd975cd2U, 0x3d89888ebd8023d9U,
  0xbd0cb4c73cb28b53U, 0xbe3025fbbe41de78U, 0xbde457e9be12df4eU, 0xbce23b7bbdb4a22fU,
  0xbc71d7b9bd091d95U, 0x3d970543bd4c1eb1U, 0x3b837380bd9437c3U, 0x3c032813bc6fedcbU,
  0x3d85a8943d5b092eU, 0xbc89d0613dc74b98U, 0x3e7ae4063e12acefU, 0x3e5156873dfe2da0U,
  0x3e8892843e1afc38U, 0x3c85fb6d3e174174U, 0xbd2e7ade3d8e25b9U, 0xbdf21bedbdbfdf31U,
  0xbe65c206be2ea77cU, 0xbe893101be68dbfaU, 0x3c5ca695bdc346b8U, 0x3ce3d394bd34ca53U,
  0xbd98e8a63d3d5b7eU, 0x3c0ca9d2bd4ce343U, 0x3ca2c8acbd28d046U, 0x3dea3ed13dc0e9afU,
  0x3e2e1dce3d91726dU, 0x3e7e01c73e87593cU, 0x3e0fb5b13e3e0369U, 0x3d398f363e1a043fU,
  0x3b844ad83d9fe473U, 0xbddc2d64bd31d289U, 0xbe8d2fd5be73eac9U, 0xbe9c085fbe88ea5bU,
  0xbdfbdce2bea14e90U, 0x3d08fa3c3d20bfccU, 0xbc6aa890ba58c080U, 0x3ce99bdcbda3645bU,
  0x3da968f4bcf2e0e6U, 0x3de4ee1c3cc29017U, 0x3ddb3ea83e5d4475U, 0x3e53964a3e30cb43U,
  0x3e1ec1513e3fa613U, 0x3e5ab4bc3e001532U, 0x3dd5a1b03e13ffeeU, 0x398170bf3d35e659U,
  0xbded1994bd6ada90U, 0xbe940539be93d9f5U, 0xbe31366cbea6312bU, 0x3d2146c1bdc8cb7aU,
  0x3c81026b3d84f847U, 0xbd91b86ebcf921ceU, 0x3cf3f5f0bceb5603U, 0x3d9514613db5cbfcU,
  0x3df978dc3e0f54e4U, 0x3c519a083d999f73U, 0x3d5e19833dbd7f76U, 0xbca151303d5d3824U,
  0x3d2dfbfc3dfd0d07U, 0xbd0bdf933d895d18U, 0xbdb3698fbe3126e5U, 0xbe9fc438be050ac3U,
  0xbe28f850bee822f8U, 0x3cabbae0baec7e86U, 0x3d866558bd173c10U, 0xbdb65236bd4e6440U,
  0x3d028e073d03755cU, 0x3dddd4423e395cd0U, 0x3d049ebd3d1bebb5U, 0x3b3533c33d2629e5U,
  0x3d33ed0b3d396e32U, 0xbb1873be3d86b6fcU, 0xbdea657dbd70eb30U, 0xbdf720f1bdc72be8U,
  0xbda72104bd50ec96U, 0xbe8ad2e2be08a490U, 0xbea78d39beec8147U, 0x3ce992b9bdd8189cU,
  0xbcace4d0bd187c1cU, 0xbbcbf4e5bd06ba23U, 0x3dc814ad3c6886efU, 0x3d66ee963d63b206U,
  0x3cae55673d766a4eU, 0x3d33c3b03e22a38eU, 0x3d85d2823d4c67d3U, 0x3d899d133c1fdfdcU,
  0xbd8b86ae3d3ed6f8U, 0x3ce5a5fdbe06920aU, 0x3b607974bd5188bfU, 0xbe6c0004bdfad1d2U,
  0xbeb0c6b7bf18738eU, 0x3d9ab7d7bda96ff9U, 0xbc30ffeebcd58aacU, 0xbd95312f3d8aafe3U,
  0x3e38d6613d4d3003U, 0xbdc4deac3d48b1a0U, 0x3d9e826b3bb1518bU, 0x3c80a7fe3bf64e8eU,
  0xbcf939e6bd8096cbU, 0x3e15ae4c3d99e844U, 0x3cf5a09e3d2ce351U, 0x3d227bc53c33c0c2U,
  0xbdd56c62bdd89742U, 0xbe837a31bd923607U, 0xbecc515abf157f2dU, 0x3b9ce07fbbeae42cU,
  0xbc9e5900bd94efb8U, 0xbd8b7db8bd8b1980U, 0x3cacf05fbdf01e58U, 0xbe2155db3c8f317dU,
  0xbe0f2448bdff994fU, 0xbe27d3a6bdcdc4f4U, 0xbe34b396be21d656U, 0xbe38d27bbe6036d5U,
  0xbd7c49cd3c7a2c6dU, 0xbd3ef5663c9c94b3U, 0xbd80d7853a9ad5caU, 0xbde78020bdf9ef04U,
  0xbe80e39bbea9f857U, 0x3da2e736bd56d72cU, 0x3da2d4a53d8afa5bU, 0xbcc2500e3c99b155U,
  0xbe67e802bd79c9f2U, 0xbebeda27be49e35eU, 0xbee0852dbedb86afU, 0xbf0e9285befb829fU,
  0xbf1e6386bf12d719U, 0xbe9364a9befb96c0U, 0xbe03cb2fbe5db908U, 0x3d6add31bd6cb5baU,
  0xbd60da3ebddc807eU, 0xbe441978bdaeb1c4U, 0xbc79b8f7be385688U, 0x3d5081983d4049e3U,
  0xbd0983f83d93586bU, 0xbe1f75adbd97e744U, 0xbe91790fbe200211U, 0xbf21ab7bbf0778c5U,
  0xbef5eab8bef983fcU, 0xbef894b4beff436fU, 0xbf099a9dbf19ae01U, 0xbec2ecf2bee24e1dU,
  0xbe2e6cb0be9c4be5U, 0x3c1fb296be3a70e2U, 0xbe180954bcc13a6bU, 0xbea2ccacbe848458U,
  0x3e0896dabc8f6436U, 0xbd621727bd326d8fU, 0xbdaad434bd43a9e3U, 0xbe3f6686bd935510U,
  0xbf07a10abe836826U, 0xbf0acae2bf29e0a5U, 0xbe9f1252bee2de0eU, 0xbe20e204be62c247U,
  0xbe307151be046bcbU, 0xbe9efd71be0b390fU, 0xbe701ee8be5605bbU, 0xbe0ada04be29e9aaU,
  0xbdf16852be114d3fU, 0xbe63f87abe1ca1ddU, 0x3e45b93fbd3d9c99U, 0x3de38d643e0b1419U,
  0x3d780a3ebd275522U, 0xbd999f5ebd96d555U, 0xbec52067be769d76U, 0xbe50a02bbe97b114U,
  0xbe06e198be0cc382U, 0x3bdb1102bdbd0f47U, 0x3e00ce11bd75fd12U, 0xbe0780233b8cb7caU,
  0xbe4ba509be0a74a5U, 0xbd975e7fbe03d2edU, 0xbe3857febda8355bU, 0xbe1b7843bdfb8599U,
  0x3e830b0b3d8c5b95U, 0x3d94f0543e0fc1d1U, 0xbd71bce5bd85300eU, 0xbd17f323bd685ac3U,
  0xbcfb04e8bb34ef6eU, 0xbca48ba7bd91c43cU, 0xbb74682ebd179641U, 0x3b237ce1bd3889ccU,
  0x3db9d4183dbeb9d4U, 0xbd67bde33d00fc71U, 0xbcf0623a3c6737d0U, 0xbe00cb5dbdb6d211U,
  0xbdfade1dbdf0823fU, 0xbd3ccf39be33d458U, 0x3e72f8a73e8d747fU, 0x3da9654c3e423ca7U,
  0x3d46033cbc6410f4U, 0x3d362b70bd336934U, 0x3e1f4c963e13bd75U, 0xbd4584713e185077U,
  0xbcaab49fbd68d67aU, 0x3d99fad43d8ceb1bU, 0x3e0b20903e3e7625U, 0x3cd815273d979a31U,
  0xbd221491bc6c42d1U, 0xbd2bf0d2bceead7cU, 0xbcae5b1dbe166b10U, 0x3d0cb6f1bc619886U,
  0x3ee48aef3e857d1dU, 0x3cc0a9723e7593c3U, 0x3d0d9fe03d8df8bdU, 0x3d8f98febd8e92d1U,
  0x3e5185bd3e222e4aU, 0x3d6c88843e280381U, 0x3e0a32ea3d64b0b4U, 0x3e2547c63e54aec6U,
  0x3e65421c3e910f11U, 0x3daedef93d63369cU, 0x3d0b5aa43d74e640U, 0xbc71b4a1bcc2dbfcU,
  0x3d50e07cbd57cc38U, 0x3e4acdd03d70ddb2U, 0x3ee37aea3e8e722fU, 0x3c10f0673df2f053U,
  0x3bda86bd3d811653U, 0x3dd3a384bb339fbfU, 0x3e8e6d123e7606ffU, 0x3e11146b3e3a4451U,
  0x3d0d75ff3d212521U, 0x3de277143dbb3e46U, 0x3e119f8f3e6d08c4U, 0xbca1a9893d54c384U,
  0x3d8012183dea2701U, 0xbcae0a0b3d9c8305U, 0x3c638f083d0d51ccU, 0x3e81fae63e23a6d0U,
  0x3ea6b13c3ec95e5fU, 0xbc05db803e2b800cU, 0xbc09e82c3d687da6U, 0xbb69e49cbd5a5a10U,
  0x3d8a14fe3de66f5fU, 0x3e7540a03dc1e53fU, 0x3e2478193e603eeeU, 0x3e623a8f3e07a934U,
  0x3e6f67743e06beb1U, 0x3d2606363dc7c478U, 0x3cedc8783e02eae1U, 0x3ca6ee343d932836U,
  0x3e1884c53decc6c1U, 0x3e5dc2fd3db8c767U, 0x3eb9ed983e74175cU, 0xbb0544b13e300f11U,
  0x3d08dc06baacf840U, 0x3d0fd1e0bded23e0U, 0x3e14fd293e424b05U, 0x3e19ccca3e2d59d1U,
  0x3dfb607d3ddc2c9bU, 0x3e00626b3e480c22U, 0x3d43186b3d9074d0U, 0x3bbfa66abd333a00U,
  0x3cb9e3d8bc721fb5U, 0x3d8ffab03cff202aU, 0x3e2b28cf3d5e4f9eU, 0x3e3e7f3b3e390f87U,
  0x3e8923fc3e9a6eddU, 0xbd3f7ea53e0e8049U, 0x3d8981a43d3a1aecU, 0x3c181da73d016008U,
  0x39bc04a33d3a1557U, 0x3dccc3bc3d3d29b5U, 0x3e15bb503d876f58U, 0x3d728c4f3e2443e6U,
  0x3cc281fc3cb6ade0U, 0xbd6c699dbcd4bd2fU, 0x3e0b7b543d20f788U, 0x3e2182263e56af37U,
  0x3e02b02f3d446827U, 0x3e3a0de93e80b307U, 0x3e4934673e59349eU, 0xbce065033d18f10dU,
  0xbda831cdbcc1cb2bU, 0x3dc309773d97b3bcU, 0x3db5a8943c8f22f6U, 0x3dec8ff93df01f4eU,
  0x3e0339a43e04296aU, 0x3cdc31963e012850U, 0xbcecaadcbc5db09dU, 0xbdf8b265bda63be2U,
  0xbbd45e4dbcbfc642U, 0x3e6b32383d894feaU, 0x3dc607a53e4c5d21U, 0x3e60a5d93e050c0fU,
  0x3dfde8fd3e0e12c8U, 0x3d737575bd01d124U, 0xbd91e43cbc87b7a0U, 0xbdc544adbd71b1efU,
  0xbdadb055bdec6476U, 0xbd212890bd2c0983U, 0x3caa343c3d4efb9bU, 0xbccb4acbbd28559aU,
  0xbe0a47483cff3fd9U, 0xbe2f0ca8be0c377dU, 0xbdc1c179bdad95edU, 0x3dbc6cd43dd679f3U,
  0x3e19aeaf3df6d0f2U, 0x3de501c53dff8ed6U, 0x3d94041d3caec1afU, 0x3c7a2b60bd3851d5U,
  0xbd130a513cea5294U, 0xbd3bba03bd33f8baU, 0xbe6a3e9bbe7811f9U, 0xbea487e2be823ca5U,
  0xbe825e88be73769cU, 0xbe0ef1c7be87f36fU, 0xbe36d485be092466U, 0xbd7e51acbd566d05U,
  0xbd9c1535bd229caeU, 0xbc6190633c6c01cfU, 0xbd9c67a6bcb8e86cU, 0x3d020ac43b751a04U,
  0x3d893438bcf14179U, 0x3c881eacbd8d0701U, 0xbd74b1e53d3fec96U, 0x3cb4b555bd84933aU,
  0xbe4f5d11bd1fa90cU, 0xbec5f2c9be8f3071U, 0xbeeaa885beb76450U, 0xbedc5c2cbeb80fffU,
  0xbe872a38beda59c5U, 0xbe833975be630673U, 0xbe67cd5abe21c3d8U, 0xbe8ed33bbe650c8eU,
  0xbd90be12be4669b7U, 0xbd9cc0bdbda306f7U, 0x3d7961a6bdd2311fU, 0xbd20f12cbc9e421fU,
  0x3c00e0e8bbccea10U, 0xbd162fb1bd84664dU, 0xbdb81df1bd4c3992U, 0xbc8feb8bb7ed5126U,
  0xbe07dc53bd985467U, 0xbe721d2dbe157246U, 0xbe1528f8bdd09570U, 0xbe7645dcbe7d7a5eU,
  0xbd9df865be5f7ae2U, 0xbd8ab882be64ad80U, 0xbd156a94bd2e7ea2U, 0x3d7735c0bd4621e4U,
  0xbd4109d53d5e8a68U, 0xbc90a528bd1fbf9eU, 0x3b330780bb2dcc20U, 0xbd1858793c9681bcU,
  0xbb7799f53d374793U, 0x3c800cb8bd6b3704U, 0xbdad829fbca08029U, 0xbbedbccdbdb1bba7U,
  0x3d292456bc3dcdfeU, 0xbb80535dbbb836e5U, 0x3b842e4b3d7e996eU, 0xbd97f362bd4e1c94U,
  0xbcf9a4b93c979eedU, 0xbc3224853c8dfc7dU, 0x3ca19a94bc9a1130U, 0x3c1f67983d8f642fU,
  0x3ccc2eecbc3aa840U, 0xbcdb5ae03dab0837U, 0x3d58390ebd4249d5U, 0xbd86e367bc47dcf0U,
  0xbc4890e0bd43023bU, 0x3d258f5e3d32adc2U, 0x3cb13f563d7d5d88U, 0xbd8a58c4bd13316dU,
  0xbcbd2794bcb65e54U, 0x3c02e1f8bbb13fd0U, 0xbd515d2ebd1e96feU, 0xbcaf8774bd014083U,
  0xba2d4c803cb7dd70U, 0xbc0a65b8bd7f6634U, 0xbd13e313bd7ed62aU, 0xba8a6840bc4e62e8U,
  0xbd2ea7b43cd05861U, 0x3cfa4c0ebd113e9eU, 0xbd2694cbbd9b1620U, 0x3cb76946bd92ba80U,
  0xbd70046dbc07dbc9U, 0x3d8242463bae320fU, 0xbda40b91bd9c1ac2U, 0xbd9e26eebc998f33U,
  0xbc97a71dbc5bd855U, 0xbd9f77af3c0df39aU, 0x3d0aff28bd9edbfbU, 0x3d013b2a3c9d5ec0U,
  0x3cf1b3783d1c404eU, 0x3d890c343bffe34eU, 0xbd7069ba3c740efaU, 0xbdb3010fbd03559aU,
  0xbd22d3babd337f4aU, 0xbe1aae083bf5fdebU, 0xbd9d6624bd1c73bdU, 0xbdf71936be4888c1U,
  0xbddb5aecbe0349cdU, 0xbe0885d5bd6fd52dU, 0x3a401af0bd35ad21U, 0x3d8ddabcbdf09284U,
  0xbd166cdfbc563e6aU, 0xbd6ee7523d63c102U, 0x3d54387e3c9d06fcU, 0x3da96e50bdb02642U,
  0x3c264246bdbda11cU, 0xbd81904d3d7f15fdU, 0xbda598d23da94ba5U, 0x3e153ea53d4db8cbU,
  0x3d8053ac3e2d3cc2U, 0x3e18e1963e49e66aU, 0x3dbbf24f3d01d0f6U, 0x3d211216bca0bb88U,
  0xbddbfde0bd47ad93U, 0xbde3d413bdaf6607U, 0x3d138261bcf7473bU, 0x3a1c92003d9f30acU,
  0x3d0072ea3d2c8d46U, 0xbb5089643b8277b6U, 0x3e0993773dbe2fb1U, 0x3df5ff733e24e254U,
  0x3e1334a13e83c817U, 0x3e784da43e77785cU, 0x3e635cd83e4de6deU, 0x3e09a0283e07fc41U,
  0x3d44e7a73dee1812U, 0x3b95397ebc153d5bU, 0xbe8e7501bdbba1b4U, 0xbea0708ebe777e40U,
  0xbdc3460bbe66cc4bU, 0xbd893ac4bd93a171U, 0x3d13c8423cb3fb5cU, 0x3ba29497bda7bcb2U,
  0x3e7bd56d3e02f089U, 0x3e0873483e5fb3f8U, 0x3dd4e52a3e254c17U, 0x3d2d27723e110853U,
  0x3e04bee53c7a16e0U, 0x3d1bbad83cba7f47U, 0xbd8c0bb93da544d9U, 0xbd3a2714bd73bdcfU,
  0xbe80fd6dbdaeb9a4U, 0xbed33d8cbe822e05U, 0xbd94b730be9c936fU, 0x3d9fac993be92195U,
  0xbd4dbe7d3ccad340U, 0x3d5c1e9c3d4f272eU, 0x3e4151963dabf23fU, 0x3e1fb3283e44091fU,
  0x3ded55d63d4d4542U, 0x3d9f657c3e36b69aU, 0x3e2866913d48e1d9U, 0x3cf8c84d3d9c2670U,
  0x3df3a4df3e2032bbU, 0xbbde33fc3c93b863U, 0xbd41ae0dbd925c1fU, 0xbeaa35f1be8be4ebU,
  0xbe34a735beb04f1bU, 0xba8b0ac8bdbd2cbdU, 0x3dd0cb55bd6eea8eU, 0x3dc893b9bd1d3e2aU,
  0x3e5a16633e2a2078U, 0xbc26414b3da572a2U, 0x3c4647553c0c9ca6U, 0xbcd5643f3d8ebe3fU,
  0x3d510a2f3d80733fU, 0x3e1ee6093e4baa8eU, 0x3d09af8bbabc9a38U, 0x3d3298e0bc8b17aaU,
  0xbe0020f53bd7f616U, 0xbeb6d321be2be158U, 0xbe9f0509becbb7cdU, 0x3d8062bbbd3ee41dU,
  0x3d6fe8723bbfd9d2U, 0x3cdace51be0bdba3U, 0x3e4608143e4239aeU, 0x3cf306cb3e030c2dU,
  0xba3d2a413d1a0da0U, 0xbcafb7f73d2fa118U, 0x3c02bee03c8e324dU, 0x3e3ad93c3d966681U,
  0x3de163c23de5c656U, 0x3de65df13da0127eU, 0x3d63958a3d80cea1U, 0xbec58bca3cceecb7U,
  0xbea36c5dbf14409dU, 0x3d967b51bc6d3dc3U, 0xbd2963a1bd9f32cbU, 0x3b87f4ecbd0e889dU,
  0x3d62f77f3e543110U, 0xbda53a983dc2268aU, 0xbe374d15bca2ce37U, 0xbea02c29be8dd5dcU,
  0xbe13456ebe8f45d9U, 0x3e2890273e0c40b8U, 0x3d9cc6433e173f3eU, 0x3e3b91d53d6374edU,
  0x3e1ed3703e131224U, 0xbe95944739e30ac3U, 0xbeb002afbf197fefU, 0xbd1f0fb43c83e79bU,
  0x3d885622bd6e6003U, 0x3d2023153b1dd5bdU, 0xbc87e45a3d51b9a5U, 0xbdfba4aebd226704U,
  0xbec818c8beae4e70U, 0xbef0e91bbecb8154U, 0xbc4be93ebeb68331U, 0x3e508b8d3e5c19dfU,
  0x3dced01f3e2bf3d3U, 0x3dc3449f3e0194c9U, 0x3ddb15633e476509U, 0xbea2146fbcb1aca4U,
  0xbdd6597dbed8a4c9U, 0xbd9e6162bdab2828U, 0x3c6f693ebd96036eU, 0x3e077cc3bd171fa9U,
  0xbe6ad97c3d3ba682U, 0xbedee21fbe7fa61fU, 0xbee19e66beec4691U, 0xbea0ceb1beab4a50U,
  0x3d852eaebe024018U, 0x3e09e5b13cf70389U, 0x3dc9f48d3d5fb66aU, 0x3e1259b43dd25944U,
  0xbe4782533c5fe0c9U, 0xbe777badbe291a61U, 0xbdefb140be8ce076U, 0x3d5551c53cb24165U,
  0x3d3acc583ce5a65eU, 0x3c1f11e0bd27c362U, 0xbe8735d0bb898d9dU, 0xbec0e112bed49645U,
  0xbddadc90be9c8ca1U, 0xbd5ba29ebe06dff0U, 0x3c32ecfebd0bac6bU, 0x3da820de3e3233e4U,
  0x3d9c14543d09dcceU, 0xbc25a0863cd9c62dU, 0xbe9b9cd7be14d0f3U, 0xbe985498bedbc1c1U,
  0xbd002645be96d6efU, 0xbd8f235b3d2d4e77U, 0x3c287f39bc4f7fc9U, 0xbdf955cf3c82f908U,
  0xbe945422be52b6baU, 0xbe992dd0beb8ca3aU, 0xbe38320fbe6c4326U, 0xbe377720be4f7e55U,
  0x3e11ff6f3cfbcce0U, 0xbbdf9f173d05dd07U, 0x3cac622c3d97953bU, 0xbe4910353d8c87a4U,
  0xbeb33387beb9a5ebU, 0xbe8124dbbeac27bcU, 0xbdbf5564be75791fU, 0xbd67de06bb601d51U,
  0xbd67334abba6eab4U, 0xbc0655673cd5899eU, 0xbe6d10f4bcd42652U, 0xbe84294cbeb36e2bU,
  0xbe0b4db6be6e9af0U, 0xbda1b249be8a3545U, 0x3dd80ccabc1cd240U, 0x3d1e78263d97f947U,
  0xbd27cac1bdc52545U, 0xbd20b589bd400d2bU, 0xbd6c9ff4bdc1828aU, 0xbe5b1853be6bb019U,
  0xbd7ca57abe0e67e3U, 0x3d71fd24bdb4cf25U, 0x3dc3580cbd57153dU, 0xbc4da1863cf76dfaU,
  0xbe1c4d56bbe67589U, 0xbea86d58be29bcccU, 0xbea176acbe5c6eedU, 0xbd44cf4bbe7d83e1U,
  0x3c7baa333cf5a2a8U, 0xbd49165dbb0986ecU, 0xbd92b5ebbc812de5U, 0x3db3656abd1f7edaU,
  0x3d44270b3da70d52U, 0x3d373a7e3d37b75cU, 0xbe3c9601be0cef19U, 0x3d0cc5b8bd3f0204U,
  0xbd80b543b99facfbU, 0x3e0899a6bc689eeaU, 0x3d5dd5043dd0bdf7U, 0xbe97536cbdab4825U,
  0xbe938b7bbec0f4f1U, 0xbdf668a3be5da0e8U, 0x3d839098bc419b48U, 0xbe4e198bbd84cfc6U,
  0xbd88ec51be611689U, 0x3e427b4d3dbe86f8U, 0x3d9a23863d1f7e63U, 0x3dc136633db6b997U,
  0xbe3f6b62bdeb61c6U, 0xbda9a66ebd99e69aU, 0x3bd6f7f63d814169U, 0x3dfac7423d832543U,
  0x3b56d5f53e25dee9U, 0xbdc2fb6abdc119ffU, 0xbee55187be6d2b30U, 0xbec4bc86bef92ce4U,
  0xbe6f14f7bea34725U, 0xbe5fc5e8be855704U, 0x3e0c9e30bd3a1d4eU, 0x3db0939b3d8262feU,
  0x3df980cc3d676042U, 0x3e139fcf3e7d57ccU, 0xbe856fe9be5f4093U, 0xbd81333abcd7a588U,
  0x3b83cc563d0a9030U, 0x3ea7c49b3d00594bU, 0x3e0416bd3e330d43U, 0xbd9bf4ffba4f4f74U,
  0xbea57fe8be858a22U, 0xbeca488dbefc26ecU, 0xbeb00c2dbef7e77aU, 0x3d4bf4a4be715c5dU,
  0x3e44a2063dc6e2f9U, 0x3e518bd03d7ad47bU, 0x3e3d30733e37ef7aU, 0x3d3f73273e4eea27U,
  0xbeb03276be45be25U, 0x3c58ac71bda811e1U, 0x3c87a1a7bda59587U, 0x3e73069a3e4b1deaU,
  0x3e66ac1c3e2bba34U, 0xbcdcc79c3d4e8674U, 0xbd6abd7a3c800f90U, 0xbe5ab82fbe8ae39aU,
  0xbe833074beafc962U, 0x3c6b18b2be22eb8cU, 0x3e3e3abc3e2c28d0U, 0x3dee9aa43e4daf2fU,
  0x3dea36e93da0a649U, 0xbd9484813df1ba3dU, 0xbe1cc272be8afbacU, 0xbd394c60bd03b023U,
  0xbac477c7bdadfb1cU, 0x3ea4746c3d781e21U, 0x3dea0d393e9a73b9U, 0x3e1923c63e305fc4U,
  0x3df4f5583ccd99fbU, 0xbe47e5edbdc7499fU, 0xbe00f141be30e132U, 0xbcfa2406bd90ea64U,
  0x3df4ce4e3df4d73bU, 0x3dea2afa3e6caa8fU, 0x3de344263e00979fU, 0xbe16555ebbb28e38U,
  0xbe02ae64be9742bdU, 0xbd84b195bd3d9375U, 0x3d827526bdaee7b9U, 0x3e3976343d8ab62bU,
  0x3d98b3863e071106U, 0x3d8c11a83e02deb6U, 0x3c9750403bb45a20U, 0xbdddbbb6bd931850U,
  0xbd3df3cbbe1bf93fU, 0xbc8c9f79bc457f8aU, 0x3dad6c5c3d9c6f82U, 0x3dbe4fd23db18e0aU,
  0xbe0f387d3d87a7b8U, 0xbe2221a5be5eab06U, 0xbe1ec17abe92a004U, 0x3c731b4abd7e28f4U,
  0x3bb659c0bbc9aacdU, 0x3e7f8c8e3e0bc472U, 0x3e16cb363dab6f0fU, 0x3ddc29ac3d86578dU,
  0xbd3e24c1bdd1a828U, 0x3cc3f5803d50c8dfU, 0xbda16fafbda05327U, 0xbceca8debc0fc220U,
  0x3cd4a4ad3cf3588bU, 0x3df7b3d53db8aa98U, 0xbda6bad53c972126U, 0xbe43d964be1b068eU,
  0x3b903190bddd8d51U, 0x3d8562bebc5d14edU, 0xbd8ff7e43ba74e00U, 0x3dcb09113d370e3fU,
  0x3e5240cc3e5995f0U, 0x3e2fdaf53e3e652aU, 0x3cd3c7b83d281044U, 0x3d141cd43d96844fU,
  0xbc5ac289bd61087bU, 0xbd1c424ebdacd6faU, 0xbc1ec1cbbd05a65aU, 0xbb64ba7c3db2bab3U,
  0xbe1fc76cbe355cecU, 0xbe2e981fbe08cf2fU, 0x3d791d253ccb2172U, 0xbc04e240ba006d38U,
  0xbd48a69abcd18f50U, 0xbbf0183fbd32696cU, 0x3e0aa05e3ddec91dU, 0x3e8d4d9f3e557af8U,
  0x3e4560053e7c73a7U, 0x3e86f5cb3e195ee7U, 0x3e6d45cb3dbfcdf4U, 0x3da2ba723dbbe2beU,
  0x3ce6f0723d286379U, 0xbde76e3bbdcb765eU, 0xbdc8e28dbe3f9f94U, 0xbde326d8bd9ada37U,
  0x3d2b7bf5bd9a03bbU, 0x3ccb26d43d390028U, 0xbd9398533cad0138U, 0x3c8d1dfabd79d633U,
  0x3cd645f23cd3ce92U, 0x3e2ffcb13d8858c3U, 0x3e8845e83e4c7b1fU, 0x3ea7c2373e96d1c1U,
  0x3e5011ab3e8667beU, 0x3b65e99b3e123615U, 0xbde7bef7bd3e7cb9U, 0xbd87e1fdbe3a7644U,
  0xbd8b3dc8bd5e8045U, 0xbb93f782bdca898aU, 0xbd8181a6bd96babcU, 0x3d39faa23d14689fU,
  0xbd02be27bca73358U, 0xbd201854bbdd5f90U, 0x3be80b9fbd06f897U, 0xbcbd9a48bdee48f4U,
  0xbde66ce4be258b69U, 0xbddcb3f9bddebd00U, 0xbe8e14c3be7b2b3dU, 0xbe4f98aabe7a7313U,
  0xbdad11edbe2cc8b8U, 0xbe46553ebe159a81U, 0x3adce28cbdcba05fU, 0xbd2eebdbbdbe6ce1U,
  0x3d631dd83d26a288U, 0x3d36faea3d5da966U, 0xbd9ceefc3d6f1996U, 0x3d889a7fbd36f64aU,
  0xbd96fd1f3da12a35U, 0xbd9ff486bc89c675U, 0xbd300aaf3c8c1aecU, 0xbdb7fc27bddc566fU,
  0xbb822b75bcaf0eb3U, 0xbe020764be02b533U, 0xbdc426f3bbbcce1eU, 0xbc4d35cabda067afU,
  0x3c51da973c94f671U, 0xbc97921d3da9c830U, 0xbd08c54cbc8131acU, 0x3cd2a0c0bccb492cU,
  0xbd42c0993dac0915U, 0xbd405a713c9e2608U, 0x3cc540f4bc3151c8U, 0xbcf89dc63b8edff0U,
  0x3c726d283ca45818U, 0xbd69dd9ebd44e0edU, 0x3d9c175bbdba769cU, 0xbda168f3bad9f98aU,
  0xbc1442203d0263e6U, 0x3d47212e3d9b24afU, 0x3cd3c5ccbda49913U, 0x3d9da1d53d5cea3eU,
  0x3ca7fdcc3d968585U, 0x3d650e1e3c94a7d8U, 0xbd8d1b3a3d3d8092U, 0xbc259928bd9768ddU,
  0x3c74014b3d65ecaaU, 0xbe054d5c3c91140aU, 0x3c8c7983bcd9826bU, 0xbd838f37bdb2903fU,
  0xbd3774b0bdf54df6U, 0xbe0c417fbe0d2854U, 0xbd04ec5bbe1d116aU, 0xbcc488c9be037c51U,
  0xbd95743e3d0a1c5dU, 0xbd9bb3bcbcba02e1U, 0xbcab3594bcd91904U, 0x3d2a14123d669e3aU,
  0x3ccd77c8bcb06758U, 0x3d2e5ed7bcb881aaU, 0xbd34e542bb164afdU, 0xbe3af16abb8306e9U,
  0xbe01dafebe38c2f8U, 0xbed9c886be82bb73U, 0xbeee374dbeeb0058U, 0xbed4d61ebece4e91U,
  0xbe6f37eabe9f51b8U, 0xbe0d1466be6f85b6U, 0xbdeb7e05bd2a823cU, 0xbce5c2afbc754254U,
  0xbd50bafebd6456ebU, 0xbd0e6415bd80012aU, 0xbd82c7633bc00e10U, 0xbd705405bd9981ddU,
  0xbd44a992bd900d3cU, 0xbe4a4808bd335639U, 0xbec0a7a1be93b67dU, 0xbec70424be754292U,
  0xbefc89bebf0596d4U, 0xbee1f178bed30ca9U, 0xbe468ce7bea854f5U, 0xbdcef69abe9e9a98U,
  0x3cb17e3bbdd76ccfU, 0xbda18adcbcf8f4c6U, 0xbd0a9787bd016340U, 0x3d7dd9a23d8ceae8U,
  0x3d075d7a3cfb522cU, 0xbd93568b3d5cc1c5U, 0x3d858e373cf93ac1U, 0xbdaf642ebda3ba0eU,
  0xbe90090cbdd2a839U, 0xbee71c6fbeb9c27fU, 0xbe53d13dbea2ebcbU, 0xbe9a4511be9ee719U,
  0xbe2fedc3be927ff3U, 0xbc79f6fabe3e3a6fU, 0xbc41ea0f3db2efc7U, 0x3d15308f3d08912fU,
  0x3cd918f93dc1e02bU, 0x3d846ebe3cc92062U, 0xbd295b793d12d5fcU, 0xbdb60fde3d111de6U,
  0x3cb25790bce690cbU, 0xbd9a39853d818ec0U, 0xbc715be4bd0c9aa0U, 0xbe1a9f5ebe428b4fU,
  0xbe6700c8be2c0630U, 0xbe00c37fbe2302c4U, 0xbc9b1a1a3d5bc88fU, 0x3b942d623b7ca668U,
  0x3d71b38f3dc1b208U, 0x3e741a633dcd00cbU, 0x3d66069c3d9ff9b7U, 0xbc9554bebd98fe7aU,
  0x3d7a7fa13d72f346U, 0xbdb9d5ec3b9d01dfU, 0x3d68f1303cca3166U, 0xbc4bfe6fbd104650U,
  0xbd7fbe8cbd560319U, 0xbe8b2403bd9e55d6U, 0xbe8d07bfbe407536U, 0xbec0f3c2bec8bb16U,
  0xbe80c215be9e092aU, 0xbd7700f6be4dce43U, 0xbcf97df3be1f6624U, 0x3e9de0c53e15daf7U,
  0xbd10dd1f3d443d57U, 0xbd016090bd8611a5U, 0xbc3f54e4bd9b275bU, 0xbb94a6033b2aa386U,
  0x3d251e3abd276a00U, 0x3c1387703d10af82U, 0xbe06fde7bd541d8aU, 0xbe564e00bdef793eU,
  0xbea48d76bec2dffaU, 0xbef580b8bebcd1eaU, 0xbe5c1016bed7282eU, 0xbdf0a47cbe720420U,
  0xbd82bd50bd943572U, 0x3e0bf3793e105d7bU, 0xbe0103a6bcc9a913U, 0xbcd9db80bba09d7fU,
  0x3cd00c193ccd4778U, 0xbdde3a143ce4a2b3U, 0x3d3a3d1f3ce96ec4U, 0xbd2b2273bd8fe083U,
  0xbd82b129be1261c9U, 0xbe4f16e6be4c5f71U, 0xbe9e01aabe61cde1U, 0xbecd24acbeeec0d2U,
  0xbe75b278beb76291U, 0xbde7e917be235bd2U, 0xbcde83d3bdd5a6eeU, 0x3d28b68dbdac2ce6U,
  0xbdc9db9fbdb87862U, 0xbda409b6bd7d92edU, 0xbd35115ebd2d9254U, 0xbe491e39bd8b0132U,
  0xbda82ca7be6e2e91U, 0xbe21b319bde42a67U, 0xbd9e98e8bdf6c774U, 0xbe085250bdcf2e3eU,
  0xbe1dad1cbda40e6fU, 0xbed9c0cabed8f90eU, 0xbda37d76be3ac828U, 0xbdaf9e33bbb3b499U,
  0xbcb8b1b9bdb5e767U, 0xbdd580b3bd915827U, 0xbea83596bea72d99U, 0xbd618100bdb4fa05U,
  0xbc442d69bd2d1fb1U, 0xbe515f14bd40ebb2U, 0xbe4c9d65bdb252f2U, 0xbd4b3764be32954cU,
  0xbc690303bc37ebe9U, 0xbb9cfb743df941c2U, 0xbe835a463daa5482U, 0xbe76bd59bf17a83fU,
  0x3cf04b63bc6402e8U, 0xbcdc2c95bb89e9c0U, 0xbdc6a921be193d84U, 0xbeb326babe6c7b56U,
  0xbe4c9c1cbe97dbf4U, 0xbd013c71be3670a4U, 0xbd4ea6a23d78c2c6U, 0xbdc3e063bd1c3481U,
  0xbe0c7e46be41b00eU, 0x3bf8a865bd9e76c8U, 0x3e0a7c0a3df47ed0U, 0x3e4359953e3c9575U,
  0xbed0e90a3e6d25b1U, 0xbd40b656bf12bb24U, 0x3daa3b8f3e6e6874U, 0xbc832e14bdd48a2dU,
  0xbe46936fbd8b1ef0U, 0xbe8a65f7be07e0c8U, 0xbe8f8852bec7102eU, 0xbd0b4187bbaca95bU,
  0xbc7c58503d4ae15eU, 0xbe459976be0c8a6bU, 0xbdd618d0be6a1326U, 0x3da3c87c3d53b906U,
  0x3e4faaa03e43aa49U, 0x3ed5832f3e8f4088U, 0xbe73a04b3eb59921U, 0x3b98a25abec0e1d4U,
  0x3db9ff013e8d2394U, 0x3c9678483dad4e5cU, 0xbd150ea2bd6abd11U, 0xbe797f29bd35e860U,
  0xbd3ae97ebdfec3e1U, 0x3d6d5f16bd81e9c2U, 0xbdd7fc50bdad9423U, 0xbdd636733c3f4486U,
  0x3c521eddbd48f7e3U, 0x3e750cf03e61c31aU, 0x3e81ae613e88f492U, 0x3ecdb2553ea8c8e6U,
  0xbd9be6763e99b5e9U, 0x3e540d61be78bb6eU, 0x3e8773dc3e3d5389U, 0x3d90b0e23dc59f0bU,
  0x3da467323df15eb8U, 0xbd9cd7773d4f3625U, 0xbdb64c86be14b6b0U, 0xbdb69a7bbc748d64U,
  0x3d42238ebd97b09aU, 0xbb2c2378bdb1d4f4U, 0x3de60e283df1ea71U, 0x3e8718083e80a733U,
  0x3e8859253e4221a1U, 0x3e78c7183e818010U, 0xbd0b06253df2df24U, 0x3e273e0cbdbb4e3aU,
  0x3e8ce27a3e98a8feU, 0x3e1ee4963e55549eU, 0x3da7212a3e408b88U, 0xbd86c99cbd238858U,
  0xbdce8b22be3fe564U, 0xbcea56f0bc81fc2bU, 0xbda839d93d2b45a0U, 0xb8e6a0723da62adeU,
  0x3dc1fcd93de4c6b6U, 0x3e884cd43e2f0979U, 0x3e35eba03e8b0a71U, 0x3e4ad44f3e41f2caU,
  0xbdcdad0e3cb9b36dU, 0x3e0a605a3c1d71dfU, 0x3e939c083ecfa120U, 0x3e338a0d3e37365cU,
  0xbc9ece203d6563bbU, 0xbd49cf3abc5d449eU, 0xbe281484be732297U, 0xbbf285e6bd433a0dU,
  0x3c9fe4103d818136U, 0x3cb934773d513dfcU, 0xbc6114b4bded3926U, 0x3e3295333d9ace4cU,
  0x3e0179c23e86c53fU, 0xbd1d2cd23c87553dU, 0x3d5c04fdbc34fb23U, 0x3ece5b873e2fcf64U,
  0x3e64bb1e3ebbc4c7U, 0xbc366f9e3e003b22U, 0xbd932df83d5bca92U, 0xbe2fcefabe0ef79aU,
  0xbe541c76be55d43aU, 0xbcb2fd57bd8b473aU, 0xbc84119d3d8f80ebU, 0xbda74231bd80da18U,
  0xbddb7bc1be1ce1e7U, 0x3d81deb7bdabbb47U, 0x3d4b5b8c3de07d9eU, 0xbdb9a36cbd808972U,
  0x3e66251c3d859655U, 0x3eb7fde33e87deb4U, 0x3d98bf933e65f46aU, 0xbd87a9c83daebc20U,
  0x3ce5cd55bd3a6b0eU, 0xbe68d925be2b6a30U, 0xbdd5f11bbe8b6b3cU, 0x3d5940f2bd7259b2U,
  0x3d46f5a7bdb35623U, 0xbe5f1f6ebdb33ddaU, 0xbe6a01c5be3c2e11U, 0xbd1d4c9ebe23d7aaU,
  0xbe23a2e4bb9a8512U, 0xbe38ab2ebe1a7976U, 0x3e123c9c3d2c1fbbU, 0x3e631ca23dff7490U,
  0xbdf81ac93e135e45U, 0xbdd86e39bdfe0df5U, 0xbe30cc11bdaba370U, 0xbe5a6971beabed44U,
  0xbe28ef08be344cd3U, 0xbd0f1fc23d4d53ffU, 0xbd482b29bd88901bU, 0xbe140ff0bcd73cd1U,
  0xbe4868b2bdf00b32U, 0xbec00443be4dada6U, 0xbea58dbebea42c5aU, 0xbebf381bbedec24eU,
  0xbda9747cbe921bdfU, 0x3d2110073dc4e0b3U, 0xbdc12e88bcb62223U, 0xbe6ff68dbe223a8fU,
  0xbe5094ccbe5cc9e9U, 0xbe676022be8a90a2U, 0xbe58e506be7f0165U, 0xbd826250bd95143eU,
  0xbdb41d8d3d8171fbU, 0xbdef0b8abd299f0cU, 0xbe97e9e1be5740baU, 0xbeca6e95becc3a0bU,
  0xbef6e680bee166f7U, 0xbe4c11a6bed7404eU, 0xbe50bb14be849806U, 0xbda917a2bd2fc3abU,
  0xbbb5373abd319dc0U, 0xbe733ab4be1225a6U, 0xbe0ce63fbe052263U, 0xbe86e126be753a45U,
  0xbc07852fbdcfa4c7U, 0xbc4c4f8e3d9257ceU, 0xbbb35ff4bc21e7a4U, 0xbd9d502c3aca6476U,
  0xbe519de2be362ef5U, 0xbece3661bec0d346U, 0xbe8adc9ebecab03cU, 0xbe59f7a5be8472c1U,
  0xbe8141ffbdb668f7U, 0x3ceff514be320737U, 0xbd2d1456bda091ccU, 0x3c3ad57ebda47954U,
  0xbd96eca1be008fb6U, 0xbe35b200bdb6110bU, 0xbd8e3934bd99c9b7U, 0xbd004002bd6422c0U,
  0xbd3e3a5abd428740U, 0xbdce24a6bdaa8586U, 0xbeadd904be880c02U, 0xbe9a5be0be958938U,
  0xbe5388fcbe65ca76U, 0xbe48ee7dbdcd633cU, 0xbe0ae4a0be3c2f52U, 0xbdb37bd9be0b879bU,
  0xbd29bdcebdcab9abU, 0x3e1386d0bc82c962U, 0x3d815f623c04dc7aU, 0xbdd0cbd7bc4d9639U,
  0xbca5fa6ebcf798f6U, 0xbda8b18e3d6e7c3eU, 0x3db0730fbd8c6184U, 0xbd8b22ed3ceb1ea3U,
  0xbe602135bd802c00U, 0xbe3e806dbe805d6dU, 0xbe323874be120ba6U, 0xbdfb7374bce5ab31U,
  0xbe33b0e4bd95a590U, 0xbd57ded9bd3be7e3U, 0x3d9ead0bbcd3fc69U, 0x3e09bebb3d929acaU,
  0x3d6bc5583deffce6U, 0xbd34c15bbbe1b57aU, 0xbd78bf63bbbbeb0fU, 0xbd45c5c4bd22ef81U,
  0xbca8ef783d0b5f48U, 0x3cecd3adbd365678U, 0xbe24e533bc780457U, 0xbdbd0dc6bdc24c67U,
  0xbe004bc7bd143e06U, 0xbd6b7d02be07738cU, 0xbdfbc6f5be53ae7bU, 0xbd9a8bd9be361c67U,
  0xbdc1d24cbcb77a03U, 0x3dd4112c3c1d0affU, 0x3d7d05223dad9b28U, 0x3c98b770bd11b4d6U,
  0x3c8d1fac3cc4e478U, 0x3c1008903da84d2fU, 0xbce6ed12bd45e48aU, 0xbda4514c3cabee6bU,
  0xbdc9f95ebd8aaca1U, 0xbe9dc60bbdf06b58U, 0xbe93f971be8e5752U, 0xbe89365abe4e4eb4U,
  0xbeafad4ebeed0106U, 0xbeaa31e0be99d794U, 0xbee4b4a9bede9697U, 0xbea66aecbe9fd180U,
  0xbe7c5271be4af57dU, 0xbdda267bbde28511U, 0x3d98bd94bddb1f8fU, 0xbda15d60bcf54fdcU,
  0xbceb93903d6ebd56U, 0xbd41ef6dbd205928U, 0x3c3667143c5375f6U, 0xbe368de0bcbc4f90U,
  0xbefea5f4becb7ca1U, 0xbf1ed628bec3d343U, 0xbf249e76bf0acb12U, 0xbf08c340bf44f8f5U,
  0xbf18ce7fbf3968f3U, 0xbeab0f2cbedde491U, 0xbe4e5bc7bea76874U, 0xbdafb3adbca226b0U,
  0x3d9a958b3d62c233U, 0x3d9a1929bd398673U, 0x3d8925f93da8d905U, 0xbcf2d506bd99ec7aU,
  0x3da7de04bd97fe33U, 0x3d60b5203d27e69dU, 0xbd0bc0c93cad5fc6U, 0xbd9d8f34bd9594ddU,
  0xbd801530bd9ec6f9U, 0xbde66a33bd9af190U, 0xbcd48092be0f2635U, 0xbd90f1a1bda87830U,
  0xbd7c644dbdc08ba6U, 0xbd1e01dcbd9af539U, 0xbd3500ba3d28f56aU, 0xbd94a5cebcc70358U,
  0x3d20508e3d6a071aU, 0xbd1e47523bca8a20U, 0x3d988d35b9be9200U, 0x3cc0ac103d46984aU,
  0xbdae4227bd8c73cbU, 0x3d8eacc9bb145720U, 0xbdac7950bcf51e65U, 0x3d84039f3d5db0b6U,
  0x3d80b3513c5e7748U, 0x3d9e8c973da6cb25U, 0x3c8710ac3d6e7886U, 0x3d8a46a5bc380110U,
  0x3d85b7113d2e4986U, 0x3cf93698bd45a6f9U, 0xbc839ab03c234dc8U, 0xbd93a6abbd4593f5U,
  0x3da0a0413d3538eaU, 0xbd9f0be33d9add8fU, 0xbd68cae8ba7388efU, 0x3c515a76bda9dcc5U,
  0xb8ecfa403d123857U, 0xbdc79b92bbc14beaU, 0xbd1072d83c2faadcU, 0xbd8ba9263d1b523fU,
  0x3d08e5e4bb3e382bU, 0xbd23a8c6bd34eb15U, 0x3d7de6363d2f040aU, 0x3d27bf2a3abdd9c0U,
  0xbc59b6e03d146d3aU, 0x3d92090ebae8492cU, 0xbbc96a2d3dab8f2bU, 0xbd270537bdaf1f55U,
  0xbd8278d13cf90c83U, 0xbdff80d8bd247e67U, 0xbe633d00be41b053U, 0xbe99aaf4be6f9b57U,
  0xbcf8120abe78c1ccU, 0xbde60138bdd2de8dU, 0xbc4adf0fbd7d00fbU, 0xbdc2bf4bbdb4404eU,
  0xbd6d1bdb3cb1e0faU, 0xbd8c3790bda858c5U, 0x3b2549a03dae835fU, 0x3d6c84c3bd84900aU,
  0xbd9502babc7dc2c7U, 0xbba822a43cf083bfU, 0xbdb9fa14be2c1590U, 0xbddac5dcbe3e6e85U,
  0xbe4d4744be61a745U, 0xbd8f69c6bdd1376cU, 0x3c50eed3bd88b179U, 0x3d289d77bd2c63b5U,
  0xbd01ac60bbf21f5cU, 0xbe1ceed0bd3e0c93U, 0xbd246a73bc2e9742U, 0x3d990515bd6790c2U,
  0xbb4147423d732c22U, 0x3c1af9303d9e546aU, 0xbdec49aebe1aa508U, 0xbe3b7858bd739998U,
  0xbe4cd9a2be6c4d82U, 0xbda18f76be3587f8U, 0xbe37644ebe39fbbcU, 0x3d6861f5bdf1235cU,
  0x3e21aed7bc943b72U, 0x3d4c0e393d05336dU, 0x3da91ddbbdadd5aeU, 0x3dde3d233cbca0feU,
  0x3c48b3f93db7a46eU, 0xbd3a7df03d5b82faU, 0x3d3f1eda3da19483U, 0xbd3d980d3d8abccaU,
  0xbe0f45c1bda3efd4U, 0xbdd4297ebe17cf17U, 0xbc828225be026bbeU, 0x3cc551343c8fb42cU,
  0xbcada5febd916331U, 0xbdbb09a7be084996U, 0x3da47229bd063874U, 0x3d33d33c3d346ccfU,
  0x3db73f173c9f4c4cU, 0x3e76fc0f3db16f33U, 0x3e54ecca3e335416U, 0x3b28e5403d9fbeebU,
  0xbb7f28ce3c6934f0U, 0xbd206e763d04abadU, 0xbe85c9febe18ae2fU, 0xbcfbf602be073cf8U,
  0xbd9945f0bdf087a1U, 0xbd02e8f83d5f400dU, 0xbd484b6a3dbb5a12U, 0xba97a73cbd0ae612U,
  0x3d8fbaafbdecab6eU, 0x3d36dde13d851e85U, 0xbc2ebd9e3dc5e8bdU, 0x3e6ce6ca3dfad040U,
  0x3e90fc3c3ed1c7a6U, 0x3df55e533dbaa967U, 0xbd69ee4cbc62e050U, 0xbe21ea273d5998ceU,
  0xbe8ee742beaf44f7U, 0xbc4f5a4dbe29fd41U, 0x3da5b90e3ccddd91U, 0x3d4c8e713e1291dbU,
  0xbd51cd6c3beddde2U, 0xbdbfad0d3b12926fU, 0x3d80e49ebd060d55U, 0x3db031bcbcb9e62aU,
  0x3d9a6c9b3dcd0ddfU, 0x3e8405603d8630c9U, 0x3ef03e4d3ec7f1c0U, 0x3c945cc73e5c4724U,
  0xbd6ab11abd4ded3dU, 0xbe864e0a3b486438U, 0xbe383882beed4121U, 0xbdfee4debe46f45cU,
  0xbd4fa0403d1a313cU, 0x3dc2e5a43dc668a0U, 0xbd33f5543c2f4827U, 0xbe3a5c97be016c6cU,
  0xbd671fe6be22a5eaU, 0x3d266df9bd3f4d14U, 0x3e0fd1033d91246aU, 0x3ebfe78f3e0647f3U,
  0x3f1c06d23f208818U, 0x3dcca1213e65d305U, 0xbd77b87e3ca7d014U, 0xbe190c42bddd8b32U,
  0xbe8fe620bed244a5U, 0x3d038387be06f0bfU, 0x3d6127d23e175a26U, 0x3e6fed433e109f6dU,
  0xbbd95f103dcde39bU, 0xbe6b071ebe3de305U, 0xbe6aca60bebaffd3U, 0xbda96423be4bdc80U,
  0x3e06e0de3cc403bbU, 0x3ec10ae73e612bdfU, 0x3f1a8d0a3f48c59dU, 0x3cee69913e9d8a4aU,
  0x3d8989b13dad0838U, 0xbe60207dbdb95e36U, 0xbe5e4f06be3e38f6U, 0x3d50973cbd75917cU,
  0x3e85655b3e392706U, 0x3e6bdc193e0e7816U, 0x3e6ff2e93e4a58e9U, 0xbe25d03c3cd6c477U,
  0xbea91888be40891dU, 0xbe67c7b8be799cadU, 0xbbec9308be4ad1e6U, 0x3e9f6bf83db988d0U,
  0x3f0cac803f2fa03cU, 0xbd123b853e7d9862U, 0xbd818859bdb33a77U, 0xbdb91846bdf6be61U,
  0x3c1e9b03bc9374c9U, 0x3db17e213df28d76U, 0x3c9c97763d673e2fU, 0x3e5bfe023e14a984U,
  0x3e837af73e6a0036U, 0xbd7b4f693b41cddeU, 0xbea1d007be45c83bU, 0xbea21160be84b48fU,
  0xbecf7330bf0539c9U, 0xbe0b4e6fbecaf6ceU, 0x3ed1cb1e3e5c564eU, 0x3d2ac2ad3d5a2894U,
  0x3d789d2fbcd05fccU, 0xbda54b0abda019d5U, 0x3dc8d344be00a098U, 0x3dd7658e3e004ae7U,
  0x3d4b770b3c332e44U, 0x3e5fb3693e03309aU, 0x3e226f943e8c1535U, 0xbe4a2ba6bd64bd7eU,
  0xbe9ad372be9a7f6fU, 0xbea73635be8a1344U, 0xbf37087fbee51d94U, 0xbf30fc34bf436601U,
  0xbdb2e0b8bee062cdU, 0x3d57dad23df974a8U, 0xbd2db8863db0c364U, 0xbc39b197bcbd1673U,
  0x3c043f82bda87004U, 0x3dad74723d419815U, 0x3b9f0ea23d0b80f6U, 0x3e7968ed3e34a557U,
  0x3e2a6a153e5b8063U, 0xbe913590be049464U, 0xbe73af2ebec30e72U, 0xbe09d56abe69ffd3U,
  0xbea4e143be30576dU, 0xbee3bf3ebf006ac8U, 0xbd9b4761bedd2c96U, 0xbdb91908bd141fb8U,
  0xbdae40dcbd08ec39U, 0xbd98371f3d23a821U, 0xbdccc2cebcff7dd5U, 0xbd3f27b7bde58b2bU,
  0x3d4492ed3d5edf62U, 0x3d6436143e54f271U, 0x3d9de0753db8a012U, 0xbe268f78be1eede4U,
  0xbe993282be7b79dfU, 0xbe1e37e4be263a56U, 0xbda0b220bd83f403U, 0xbe723647be190308U,
  0xbe25b24fbe8ad0ffU, 0xbc75a650bd566a62U, 0xbd3b9d97bd322244U, 0xbe0a860dbd457a33U,
  0xbe7261c0bd8f172aU, 0xbe1b02a5be36179eU, 0x3d4c00b5be109278U, 0x3d2b28503dc200cbU,
  0xbdf422683d697959U, 0xbeac652cbe9bc03eU, 0xbe5d823bbe657d38U, 0xbceca587bdb67498U,
  0xbdf303d3be14df5bU, 0xbd2e53a7bd7879e6U, 0xbe1dcee3bca9f2ffU, 0xbc87409cbd98af9bU,
  0xbd2abb7cbc546b79U, 0x394821c8ba9d0082U, 0xbe350286bd97b721U, 0xbe983505be21779fU,
  0xbe90515abeb6da4bU, 0xbe1be084be29a6c0U, 0xbe6fb2e9bda164abU, 0xbe896f0cbe62058eU,
  0xbdcf0073be43e8cbU, 0x3ca8eb7fbce787ebU, 0x3c021da7bd9353f2U, 0xbd38d82ebc69f8fcU,
  0xbe91cc8b3ca10d45U, 0xbd4f1b68bc97e7a3U, 0xbd338a363db1cae9U, 0xbdb45a273cc80bfcU,
  0x3ca872bf3d11c051U, 0xbe9361f13e091f05U, 0xbebb168bbe95573dU, 0xbeac8e98be8e9146U,
  0xbe9b8427bebeef72U, 0xbdf8ece3be692b3bU, 0x3da3ce52bcc987e1U, 0x3d6b1a1d3c39e619U,
  0xbc213955bcc58636U, 0xbbdeda6d3cde6bfaU, 0xbe59ab13bcb568e7U, 0xbcabf207be0d34acU,
  0x3d539edf3d53c216U, 0xbd7b4790bc4ac15cU, 0x3dde17543d987ac7U, 0x3df2a3dc3e590e47U,
  0xbe7a097ebcc15ebcU, 0xbe8bb061be8e3e6fU, 0xbe33b433be2a1123U, 0xbd1858a3bcebb8f2U,
  0x3c0b4f05bbd216c2U, 0x3d833645bd8b885aU, 0x3c7f30243dc8e997U, 0x3ded08593d81505eU,
  0xbe19e9153d999eb9U, 0x3c8913ac3ca175edU, 0xbc46efbbbd23c7c3U, 0xbe173529bd929523U,
  0x3dfc336ebc358abeU, 0x3e02aaeb3e335ef8U, 0xbc1c22583e068a59U, 0xbd5cf0a63c120224U,
  0x3d36ce5fbd0453bcU, 0xbd14851b3d602386U, 0xbc5fdd003c0198fcU, 0x3d0be2083bda76fdU,
  0x3dbead8ebd416d3eU, 0x3d8579a53beeab2bU, 0xbdee3fd8bc4768faU, 0xbc9492b1bd37fe13U,
  0x3d04ea063d5b7546U, 0xbda4d49ebe0bb49dU, 0x3e2189233d000bd9U, 0x3d526c6d3dcccc9eU,
  0x3e23d6473df6e996U, 0x3dff16c83d851b4fU, 0xbd3b2bf23dca682fU, 0xbc955fe7bd5b42f2U,
  0x3d3c0eb73ddbaf4cU, 0xbbcb28043ddab372U, 0x3d2767e13c989621U, 0x3ddee4713e69c786U,
  0xba5255af3ce92412U, 0x3cc543dfbd4d76f7U, 0x3d8bc6783d81f2cbU, 0xbd8a7506bdfed97eU,
  0xbd91bf5f3bee3e7fU, 0x3cdba7dabc9e3ddaU, 0x3e164a203c43f8e9U, 0x3d6c1a893c841380U,
  0xbce33d1f3dad16a1U, 0x3b81cad13daf38d9U, 0x3c9371ac3db864abU, 0xbc923b503cd7d65bU,
  0x3e1130d83d3f521dU, 0x3d2a2e093dbcb037U, 0xbdcd92033d2fabd7U, 0xbce98fd03cbf09ceU,
  0xbd8c6623bd7c086bU, 0xbd8c4ca0bd8ffe1cU, 0xbda0fe5abd561f7fU, 0xbd89be25bd50e088U,
  0x3a9355ba3d2f6b42U, 0x3d8d30353da0a8b0U, 0x3dc180e53dad805eU, 0x3d3bd2b63ddec555U,
  0x3dce75c53d95e354U, 0x3dd149983d2792ccU, 0xbc9003043df93a3aU, 0x3dbab5373d4563c0U,
  0x3d49a18dbd5b8f5eU, 0x3d0f676b3db67574U, 0xbcda65d2bd0a32d0U, 0xbc503fca3bec6700U,
  0x3bc65628bc8d6d6cU, 0xbdf35d52bd8b08beU, 0x3ca6be92bcc23322U, 0x3dbb62263dbb81e2U,
  0x3d66ee9f3dca44f0U, 0x3d8deb6c3cdb204cU, 0xbd6290593d92270dU, 0xbd359a3fbda52ec2U,
  0xbc9b60c33dd12e85U, 0x3ba9b8b23cbc9f12U, 0xbd6bc7653d92d1fbU, 0xbb54b140bd80d010U,
  0x3d48270e3ce8587cU, 0x3d6bf859bda3af03U, 0xbd6dbbf6bb10f433U, 0xbb5254ffbd422151U,
  0x3e3258ef3c390132U, 0x3dbc0b003d538d9cU, 0x3e5227c43dfbcf8eU, 0x3dcd63673dbd18b6U,
  0x3db576463d58a8fbU, 0xbab95fc6bcb34d7aU, 0xbdc76ddebd3afb23U, 0xbc6f2099bd5df10eU,
  0xbd743e8c3d9dab79U, 0xbd74da9abd9593c8U, 0x3d0ef5e23c6abdf0U, 0x3db843d43b7aaac4U,
  0xbcbdfb54bdbfd849U, 0xbe2f22ccbe2f7586U, 0xbd7fe343bcc1e359U, 0x3da524853d9dd517U,
  0x3e22350d3dbccffaU, 0xbc7cf5a53dce998dU, 0x3dbb660a3cfa48f3U, 0xbdf44fa0bda3f90bU,
  0x3d59eda3bd446979U, 0x3da8fc9a3d185a47U, 0x3c875fd83bc7d65aU, 0x3d835c71bd74313dU,
  0xbd2f87d2bc78cd40U, 0x3d24e6223da87669U, 0xbd016adbbdb3cbb8U, 0xbde668cfbe2fdb13U,
  0xbe3c0d23be40d259U, 0xbc0856a3bd70c06bU, 0xbe2b64e8bdb6f122U, 0xbdb50570be15599bU,
  0xbe23fbcdbdccb81fU, 0xbc8e92d5bdd037ffU, 0xbd3ad0cebdc4ded3U, 0x3d238f7a3d461ef8U,
  0xbd82a2333d27dd88U, 0x3d4bf49e3c31c368U, 0x3d0ae6743d9d19a5U, 0xbbbd58103a9e5780U,
  0x3daad5d53bb77a17U, 0xbcc432773d0b256cU, 0xbd9ab02abc183687U, 0xbdab16e63ccbd287U,
  0xbdb7ef19bccc250bU, 0xbda76d85bdf2fee4U, 0xbd599f0cbe0a185cU, 0xbd02272e3d085ab4U,
  0xbbe734eabd931c3fU, 0xbd06b451bd8b1a58U, 0x3d6c337ebda77e89U, 0x3d7708e2bd26dfc2U,
  0x3bf6d1803d7903a2U, 0x3c14fff8bbb59e10U, 0xbcb47eec3c8cc1c8U, 0x3d78621ebda6da80U,
  0x3d81483dbd8e6ad4U, 0x3cd59ce8bca3317cU, 0x3d7b1bbb3d7d188cU, 0xbc02c2fb3cc4bc85U,
  0x3d01e2bebcba1fd0U, 0x3ce24474bd0ac270U, 0x3da39a3bbd649cc8U, 0xbd25fe17bd8074cbU,
  0x3cc6b0c4bd7d2d94U, 0x3be906103d957b1fU, 0x3d9106913d4bc6aeU, 0x3d48b3b63d39dea2U,
  0x3c6dda13bd49c900U, 0x3d6d28103df99ee7U, 0x3e182a97bd03fed0U, 0x3dafa4ff3e12f3c7U,
  0x3d77e87d3dc7818aU, 0x3da90fa03de55cfaU, 0x3d6672c8bc1a846cU, 0x3dda1f683b342aa8U,
  0xbc36b28c3d9f67aeU, 0xbd2725303d9b67efU, 0xbb9d29f03c39eb58U, 0xbc49cf20bd865cfdU,
  0xbd8d15c93d276b6eU, 0xbd0158e7bc9c96e3U, 0x3d94f2cf3dbbb4b4U, 0x3db9679f3d586579U,
  0x3de3aaad3da83dffU, 0x3ea16a8e3e6f0385U, 0x3eae2b253e811df4U, 0x3e044aaf3e77ebcfU,
  0x3e208c273e94bb4dU, 0x3e56e9763e698b88U, 0x3e43c4dc3e7cea66U, 0x3e1a1f043db9e1c9U,
  0x3c9ae5763d9264f6U, 0x3d2d26d63d90bf43U, 0x3db02525bd43a8f5U, 0x3d47403e3d8351c7U,
  0x3bf5cc393d97cef5U, 0x3da233bb3dbcba38U, 0x3d879d8e3e512810U, 0x3e4566fe3e56b6abU,
  0x3ddd4b413e02f591U, 0x3d9c70e33e30eae8U, 0x3e17343d3d6c3437U, 0x3e234a423e1af1b8U,
  0x3e81615b3e63928eU, 0x3e7cac4e3e515d89U, 0xbbcc8a333e0bf814U, 0xbbbab9203ccdda2dU,
  0xbd922c33bd1bc31dU, 0x3b92e1ffbc967ac1U, 0xbc920c14bd45889aU, 0x3da16bca3b8ed949U,
  0x3d3aa4463dc31db1U, 0xbdf5e2243d76ee9aU, 0xbd9c4525be1b5cf8U, 0xbcc4ae3bbe00a756U,
  0x3d3de9acbd45a258U, 0x3de581d13e00e781U, 0x3e5619263e3cef2eU, 0x3dd900b53e6c7864U,
  0x3b7726ffb9eaf708U, 0xbd45c6bcbd76cebcU, 0x3da8d62b3d24fb12U, 0xbdc1af02bd05da8fU,
  0xbe05bbb73c2ce727U, 0xbdba465abd835924U, 0xbd5f96003cf9fc33U, 0xbe3f7bb33c01b72aU,
  0xbdc78a4ebe01b27bU, 0xbd9b09d9be1b88a8U, 0x3d0c242dbd10dbb1U, 0x3e20b72d3c49c2d7U,
  0x3e0222ef3e1c0e1fU, 0x3dafb51f3d2ecac6U, 0x3c525d08bc86d100U, 0xbd300797bbddf9d0U,
  0xbd7b521e3da5805fU, 0xbd1dd521bdb66c70U, 0xbd21805fbc37bdb0U, 0xbdf0f9a2bd8950ddU,
  0xbd82e16abdf30696U, 0xbe38ada0be541560U, 0xbe44c1efbe30c58fU, 0xbde6df0abe4a7784U,
  0xbd8ac5cabe479598U, 0xbd59dfaabd8fa70fU, 0xbd86e4a9bd750f10U, 0xbddda066ba039f9dU,
  0xbe04ad27bd4a087eU, 0x3c8919e7bd79fefcU, 0xbd308cbb3bee41d0U, 0xbdf9e1743d5a1542U,
  0xbdd8450bbcb52d18U, 0xbd0af7c6be4ea837U, 0xbe191863bdf87dbcU, 0xbdec854bbe4af1ecU,
  0xbe0dca0cbda7d634U, 0xbdebdab7be4eabe4U, 0xbe375df7be8295fdU, 0xbe937d61bea964f8U,
  0xbe433c81bdcb48bbU, 0xbe80333cbe67f919U, 0xbe195f2cbe07c102U, 0xbd707ff4be046e4bU,
  0x3c9fa0a9bd894ca7U, 0xbdc31ce43d00c2d4U, 0xbdde13a1bdbbf602U, 0xbdd99188bd9c4dd8U,
  0xbe005ac4bdcd3b65U, 0xbe4e4ff5be3346cbU, 0xbe9311edbe47e12bU, 0xbe74bb5fbe55c137U,
  0xbeb9801ebe9c0fcfU, 0xbeb38534bee1c2c5U, 0xbe4786edbec2aadbU, 0xbe97ce60beb8961eU,
  0xbeb8332bbecb3b69U, 0xbd0df1ffbe047b51U, 0x3ba1f699bc9379d7U, 0xbe11eaca3d136320U,
  0xbe5fde62bdb5b575U, 0xbdef5becbe2b2eccU, 0xbe090e3dbdb3a85fU, 0xbdce7137be215f93U,
  0xbe4c72f9be182686U, 0xbeafe4c5be02211fU, 0xbef36711bee2e8c7U, 0xbee40699bef7b77aU,
  0xbe895fb7be9bc70aU, 0xbea0c09dbea7324aU, 0xbee68d34bec538adU, 0xbd3e56e3bdd0bc66U,
  0xbd8672f93d0628c7U, 0xbd8abe4dbd3b8bc6U, 0xbdce0d96be3ef18dU, 0xbc1bcf89be191b16U,
  0xbe49323c3ca6af4aU, 0xbe10b87bbc515ffbU, 0xbda573ccbddd9727U, 0xbe99dda2be8a3becU,
  0xbef81285bed6561aU, 0xbe9ad651bed0f51dU, 0xbe5e3be0be8be2e9U, 0xbdfe5a84be1277b8U,
  0xbea7f190be576bd4U, 0x3be035ccbe57c145U, 0x3d3da28cbd8396abU, 0xbe113649bde1dfffU,
  0xbdbf3ed0bdc0d62eU, 0x3dbd4346bd10daf2U, 0x3d70fc41bbb13e4dU, 0xbd7411f93c9c034cU,
  0x3ad4366c3dab7cc5U, 0xbebb3267be99307aU, 0xbea6a71bbeb8b6c7U, 0xbe810424be4008c2U,
  0xbdc3d543bd9b1b3dU, 0x3deb59533d9247bcU, 0xbe5ff325bd1cb989U, 0xbd46b7c0bdc8c56fU,
  0xbca0b8343d494e37U, 0xbc54a5d13d492685U, 0xbde093a1be6693f5U, 0x3e03a9603d819afdU,
  0x3d9efaf8bb6fb045U, 0x3df3c1f8bbbb1389U, 0xbd72a1bc3df92a26U, 0xbec3fb46be82f33cU,
  0xbdee4407bd84bc72U, 0xbe2b1df0be217e39U, 0x3db56aa5bd784d05U, 0x3e901ff13e4f6a2bU,
  0xbe2c53d93e51d655U, 0x3d0291a3be2ccf14U, 0xbbc86f93bdac156cU, 0xbd8133b3bd700236U,
  0xbcbb8a4dbe440dd0U, 0x3d8a18943d85a1faU, 0x3df682833ddf7e29U, 0x3dc977ff3ddccc5fU,
  0xbdb779b53dabb393U, 0x3c71c71ebe420c10U, 0xbe0849773b806119U, 0xbe132a41be261431U,
  0x3daef607bd8833e9U, 0x3e8776d23e8465dcU, 0xbd2946f83e329b84U, 0x3d84d6c8be5e5e32U,
  0xbd32d933bd9ea79cU, 0xbcf613533d01ce46U, 0x3c5aedd8be9ecbdfU, 0x3dd363d93d9ae9ebU,
  0x3d9683a83c73feecU, 0x3e81d3513dc0d7d8U, 0xbdffc4643db9e02eU, 0x3ced6509bdd070c6U,
  0xbe650b723cdc6e10U, 0xbdae61cabdeeab3aU, 0x3d316dbcbd056e88U, 0x3e9b1e6a3e90ceaeU,
  0xbd594fb23dddb4dbU, 0x3c8ad2a9bdf9702eU, 0xbc2d4e823b3928c3U, 0xbd81be603d808970U,
  0xbd52cb5abe80f390U, 0x3cc1e4bb3dca3714U, 0x3dc7ec6b3e0aa915U, 0x3e9400133e8e2456U,
  0x3ce2a2543db58471U, 0x3bf3c03d3cc6c485U, 0xbdbaf9c7bd9771d0U, 0xbd3ebd18bd8ed2a0U,
  0x3d81f7ed3dba0f61U, 0x3e1882e83d89ef4fU, 0xbc645e223c462755U, 0xbc2a1a44bdb3fe03U,
  0x3d5c458a3ca43c4aU, 0xbe1dc3ccbd722c00U, 0xbd7bf079beb6a3b1U, 0x3e52bbad3dacbe55U,
  0x3e217a0c3d8e0a0cU, 0x3e8c986b3eaa563aU, 0xbc5522c53d11f260U, 0x3dcd58d13ded2bc2U,
  0xbe6742bcbdae168fU, 0x3d590d1cbd919516U, 0xbd8eaac33c7cbedeU, 0xbd4e005fbd7b09fcU,
  0xbe247a1a3c4a4dbbU, 0xbcaaab86be5843e4U, 0x3d246d8dbd21f570U, 0xbe0b80d5bd00a16fU,
  0xbe7b37fabeb4b41dU, 0x3d486af4bdbd48f7U, 0x3e631fa63e3de3b3U, 0x3ea63a9f3ea87dd6U,
  0xbd60f8663dbbc87eU, 0xbdd371c63d2f56e2U, 0x3d0cc66cbdca7996U, 0x3cc912143de5bf08U,
  0xbd8397803cb7cfb4U, 0xbb92caf3bd0f5ea8U, 0xbda5b614be366e0fU, 0x3aa46d9cbe03b970U,
  0xbd1ff97abb91b705U, 0xbe86c77b3b4b4278U, 0xbec6f3a9be98201bU, 0x3cdf2bf7bd6e7288U,
  0x3de8ff4d3c9ccde6U, 0x3ea38c183e3b05c1U, 0x3e10ba423ea691a4U, 0xbd1e79303d0e4d08U,
  0x3d17da843db42185U, 0x3d93f87e3e14d2e4U, 0x3d10f465bd122879U, 0xbe0065a33d83e06bU,
  0xbd7da75fbd554ea5U, 0xbd056ef8bd6be43dU, 0x3cba648d3d389913U, 0xbe550904bbb79229U,
  0xbebb9ce7bebfb998U, 0xbe02d054be614f33U, 0x3d9336453d81d652U, 0x3e8613c83e888a95U,
  0x3d9f29b03e915990U, 0x3e0416053e11b80cU, 0x3dc093853e491cfeU, 0x3bdd54773dea4886U,
  0xbcd629103c50ec03U, 0xbe31766fbd06fe52U, 0xbdce9435be16182eU, 0xbd762747bd476db0U,
  0x3d99e71dbda9dde3U, 0xbdea3bb5bc5de1f1U, 0xbeb5c660be7d1861U, 0xbe24048cbe5928eeU,
  0x3dcb40b7bd8332ebU, 0x3e3be0ad3e7be1baU, 0x3e9a7b863eb18986U, 0x3e7622e53ead2c53U,
  0x3df72c823ddb7c0aU, 0x3d6b5c6f3d662b79U, 0x3cbfbc973d714f03U, 0xbe4d18e6be429e4eU,
  0xbdbd9c1dbe060567U, 0x3d875be5bccfe131U, 0x3ae51d9639ca0b00U, 0xbe30be9abd8fbd57U,
  0xbecb4acbbeb16d44U, 0xbe1debefbed40376U, 0x3ca8ca11be0b340cU, 0x3e909ac73bdf11b2U,
  0x3e9b813e3e946a88U, 0x3e4d46453ed5479dU, 0x3dfb82cc3e16c010U, 0xbd72f17e3e298e6dU,
  0xbda1b67bbcf94431U, 0xbe58d523be3a574aU, 0xbe102e30be11ef33U, 0xbd30743bbd97eb64U,
  0x3da07d2cbd968660U, 0xbe03786bbd0d7763U, 0xbe973442be8e10b0U, 0xbecae3dbbefcc14bU,
  0xbe223a8abe95f147U, 0xbd7da544bd5d84ffU, 0x3ceb301b3e0a84bbU, 0x3d9463e6bc100fbaU,
  0x3b67b4663d9c0243U, 0xbdbf3681bda66453U, 0xbe62095ebe1c0c6aU, 0xbe547cc2be2f55deU,
  0x3cc16252bd35eec9U, 0xbd03efb43d23afffU, 0x3da13e313d3785ceU, 0xbdc572aa3c84439aU,
  0xbe72694bbddfe053U, 0xbed03cf0bea8c8e6U, 0xbe9b63ecbeb224daU, 0xbeac3d7ebed87a62U,
  0xbe1632f4be8515a0U, 0xbe02f3e2be446eeaU, 0xbe9ae79ebe50c843U, 0xbe5e1d55be0bbc65U,
  0xbe2fd993be1341f0U, 0xbe1fc5cbbe31baf8U, 0xbd70c4c8bac84d82U, 0xbcfd89d0bb67f0d6U,
  0x3d004386bdb03debU, 0xbd183da9bdaad7c0U, 0xbdbfe45c3cad13d7U, 0xbe7b680dbe30c07dU,
  0xbed513c9bea6e2a7U, 0xbf10c6edbf21ea10U, 0xbee28a76bf0dedf8U, 0xbed597b8beee5bd9U,
  0xbe90eec0bedaf18cU, 0xbe9357afbeafa96dU, 0xbe98a479bea96a00U, 0xbca265e0bda991ceU,
  0x3c0ada36bdaecb1eU, 0xbab15a003d224907U, 0x3cf3e3d03cc1f538U, 0x3da99f713d4d9eb6U,
  0xbbd6dff83d0bdd09U, 0xbe177d67bdc57d91U, 0xbe85dac9be48bf57U, 0xbe512791be7530e9U,
  0xbeb1b8b2bebf019bU, 0xbec6db4fbee05c6aU, 0xbea8acc7bed1c54aU, 0xbe61ff80be8d0b1cU,
  0xbc43a339bdf09eecU, 0xbd5b8a8dbc536e24U, 0x3d6541e03d579984U, 0x3bbe3290bd0ad780U,
  0xb72d2000bdaea10fU, 0xbc94d3e8bc8bc554U, 0xbd1b7f45bcf2f39fU, 0xbde9f3a33b53e611U,
  0xbbe250fdbe137417U, 0xbe2b753d3a0b76a0U, 0xbdddd14bbe2c1933U, 0xbe4cceb9be197e21U,
  0xbd3e54efbd88c9cdU, 0xbde1f914be082529U, 0x3d52dc73bd3227d6U, 0x3cb319fa3d0bebb9U,
  0x3c234f9f3d801cb1U, 0x3ce181b83d698a7aU, 0x3d46e87a3d9c909dU, 0x3d8f183d3cf24b60U,
  0x3d8ce61ebd2a284bU, 0x3da0369dbc900b22U, 0xb9f3d9ffbd5771abU, 0x3d313902bbc27edaU,
  0xbcb074243c5632cfU, 0xbcc876e63aa94fa6U, 0x3d1a4e4e3d306a0dU, 0xbb714a9ebb36b0dfU,
  0x3d6bdbad3c91ed5dU, 0xba3d739bbd8bc01cU, 0x3d39d67e3d89881dU, 0xbc9bf2c43da8b2f1U,
  0xbd902f703d320b62U, 0x3d33fdf6bd5b3658U, 0xbbeb6ef0bdadeb79U, 0x3d450552bd903c0dU,
  0x3dae017fbd4dd22fU, 0x3cabbaacbc7f2b68U, 0xbd8db48d3c8abc6cU, 0x3daec22dbb9f25f7U,
  0x3d382eaabc451768U, 0xbd28e5ecbcfe3380U, 0x3cee0d1cbd056875U, 0x3b6eb8e0bd3101a9U,
  0xbd62a8ea3c999130U, 0x3bab83903d0fcbc6U, 0xbd956b33bcb5541cU, 0xbd087ac13da74377U,
  0x3d49049f3b93d765U, 0x3d972a42bdb4a505U, 0xbcb6a1073d379872U, 0xbd98cad8bd97d4feU,
  0x3ca91be8bd6f3064U, 0x3cc0bfdc3b995034U, 0xbcc89970bd76eb86U, 0xbcbae7f23d4c72caU,
  0x3d014792bd428c5eU, 0xbca3924f3b791028U, 0x3d012c2c3d0dfe98U, 0x3d03a3243c17a7c8U,
  0x3d7f3472bd60d815U, 0x3da98782bcfce943U, 0xbd3ce0be3d81897cU, 0xbd55774d3c4e58a3U,
  0x3bd8ea953d4a1f81U, 0xbe04c9cf3b03310dU, 0xbd38b3c3bd576e25U, 0xbc8ef6a5be399210U,
  0xbdda7df1be2e7784U, 0xbddcf08abe04cf92U, 0x3d3ff252bd077622U, 0x3d8375f53caacbe7U,
  0x3dad9d8e3c9e5b5cU, 0x3be6aa403c3ef018U, 0x3d920737bd811252U, 0x3d15814ebba50589U,
  0xbdad61933a913724U, 0xbe0e4dbbbdc449b1U, 0xbe3fd06cbe237388U, 0xbe5e3095be73e47aU,
  0xbe6a95a7be1cf7e9U, 0xbe5155e5be824297U, 0xbe563115be1c8258U, 0xbe43e664be37b6fdU,
  0x3c6ab4dcbe264b43U, 0x3cb0dfcbbde5a357U, 0x3d042ad73b7c8856U, 0x3d9a3fa93c12ee43U,
  0x3d19dd3d3d60f6aaU, 0x3d95ca0dbc00871bU, 0xbd466a97bd201f1fU, 0xbdf4fa1dbd8e05e1U,
  0xbeab382dbe70a936U, 0xbe9dda8fbec11828U, 0xbee0e914beb31b5eU, 0xbee092b4bef3869bU,
  0xbefe3222bf0199c6U, 0xbec4beb9bed231feU, 0xbe8cfad1beb3392dU, 0xbcce1525be2efc66U,
  0x3d52e652bd6d3303U, 0xbd8ae0ff3cbe09a5U, 0xbbdca8a0bd9a23c6U, 0x3d840016bd890138U,
  0x3ca9a76abdc59527U, 0xbd06cc2fbbb62ff2U, 0xbd8929e0bde2f12eU, 0xbe6ed165be1bcb1aU,
  0xbeae4013bea01f3aU, 0xbee0731abeb04a0fU, 0xbee77741beba48d6U, 0xbf0815dcbec3864dU,
  0xbf059357bf1a82a3U, 0xbeb6ee38bee28eeeU, 0xbe179510be24a2feU, 0xbd35c3abbd9b7b52U,
  0x3ccd051dbd91992eU, 0x3cfc96213d42eed9U, 0xbb8facfdbd3784f7U, 0x3ceb2e953e02788eU,
  0x3e0cf49d3d85e0f3U, 0x3e0605ff3d6d5d35U, 0xbdca8e5d3d003e24U, 0xbda4263fbe563a3bU,
  0xbcf1ced9bd5e18c8U, 0xbe43dde6bde5fd66U, 0xbdf05c17bdc1bc1fU, 0xbec1c1e1be118fdaU,
  0xbe276428beb95e1dU, 0x3d0e9668bdfeb6dfU, 0xbcfbe678bc30c5e8U, 0x3dfd13823d899749U,
  0x3e0cb5aabc1c0e9bU, 0x3e5620523e1da171U, 0x3e282ce53e445d3bU, 0x3e6e03f13e1060fbU,
  0x3daf26c73de2f32eU, 0x3d2f1df6be101810U, 0x3d36bebfbb622c9dU, 0x3d131ded3e1ce405U,
  0x3c9feb043dde3d9bU, 0xbe2a8d52bdefcd08U, 0xbe9f1c3fbe852764U, 0x3d8a3961bd64161cU,
  0x3d9ea1253da2114fU, 0x3e5b2b573e1c541fU, 0x3e2f39413d9066d9U, 0x3e00027d3e036472U,
  0x3e2f2aa53de79599U, 0x3e1ec7eb3e15d790U, 0x3dba45ef3e337983U, 0x3e2b098e3e147049U,
  0x3e2a6a283e7e27edU, 0x3d7c32ec3e7f4484U, 0xbc8f8af63caac5c8U, 0xbdf4cd373c8005f4U,
  0xbe8e8663be4cbbabU, 0xbbb25ffcbda7240dU, 0x3d2c048d3c8ca42bU, 0x3e151cd63e34e177U,
  0x3db5632f3e43bfb7U, 0x3d010bed3de55027U, 0xbd0e9571bca1dcffU, 0x3d862ca63d0b1f20U,
  0x3e2538153dc10918U, 0x3e6724553e4fc476U, 0x3e898cd53e9d314cU, 0x3e519a203e1eb709U,
  0x3dc595623dc0ce77U, 0xbdd884f0bd911714U, 0xbe9090bbbe6fddf2U, 0x3ce77414bdd79e4fU,
  0x3e0d9ca23d99a50dU, 0x3e103ce33d9c6523U, 0x3e0045083e45db4bU, 0x3d310f03ba09e994U,
  0xbd8b22f4bd0d714bU, 0x3d3b0080bc31c867U, 0x3e2709cabd77269bU, 0x3eafd1893e86b17bU,
  0x3eb263113ec9a635U, 0x3e56231c3e62900aU, 0x3dec1a043e5693fcU, 0xbe060f0f3d6fa003U,
  0xbe1dbe37bea1f195U, 0xbc70852cbdf8d703U, 0x3e06137dbbd4afd1U, 0x3e8d4a2c3e242333U,
  0x3dff3f273e81c3d8U, 0x3cff0c95bb234638U, 0x3d9fadacbd9aba00U, 0xbd0b7f653d362abbU,
  0x3d10a564bdb0bcd0U, 0x3e6dce203cf45ac2U, 0x3e6d60403ea734edU, 0x3dfc5a133e41703fU,
  0x3db857233da870d3U, 0xbe6a7dc13d0d16abU, 0xbe72be36be930d9cU, 0x3d2df642bda3a3fdU,
  0x3cbb74c53cc3ca75U, 0x3e3b7f723e356338U, 0x3e17eea33e6a79e0U, 0x3dbb6c503bc3c854U,
  0x3c7cf1dd3b870f15U, 0xbe0e92c9be16ca4bU, 0xbf122827bee2bdcdU, 0x3c85ca39be8330afU,
  0x3e8144143e9227cdU, 0xbd33b45a3e3c992fU, 0xbd338b6ebd688bd9U, 0xbd8043debe122791U,
  0xbc744f59be50cc76U, 0x3d39e7123d3000d5U, 0xbd3e360dbd78fe56U, 0x3e3cb01e3e1423fbU,
  0xbcae1ded3e477830U, 0xbc4e0dab3ccd024dU, 0xbe1103383c44ab03U, 0xbeecea45be3305aaU,
  0xbf41aee4bf505091U, 0xbd202390be95b9feU, 0x3d022cd23e078c32U, 0x3d0984343e029bc6U,
  0x3d1794123d96bc6dU, 0xbd18a1acbdc54181U, 0xbc93bfbbbd785980U, 0x3d903a32bd04e7d0U,
  0x3dc4ab72bc79bc41U, 0x3dd044163e1ca6e8U, 0x3d7e73613dfce27cU, 0xbdb22140ba6087f9U,
  0xbe80f17abe057fb1U, 0xbf12766bbeb45abeU, 0xbf252bb0bf4d4f28U, 0xbd826238be75dcf2U,
  0x3e3b33fe3d67dfe8U, 0x3e90d5b63e8be49cU, 0x3e29ed963e3a28bbU, 0x3c76c56b3e0573f3U,
  0xbd24888ebd9ec7a3U, 0x3da2cf0dbd424dcbU, 0xbd43cf26bcfa90d0U, 0x3c9f706ebbe47162U,
  0xbe1f4e81bd5d3828U, 0xbdda21c9bb37fcf2U, 0xbe74f1dfbe9c242fU, 0xbf0d8dc6beaea337U,
  0xbeb1ba7fbf0a8f9eU, 0xbd6d28c7be488e77U, 0x3e39b3cf3d617cccU, 0x3e9af1743eb9ccfcU,
  0x3e2a1de13e7fd6dcU, 0x3d1033943e83a0f1U, 0xbdc3b8eabd812f72U, 0xbc2d9395bd978200U,
  0x3d700d7fbd7546d5U, 0xbcf2e4b5bd3b2dc0U, 0xbdceb45d3d19d338U, 0xbdf0e3c7bd4d4b7fU,
  0xbe9991c9be5311dfU, 0xbf021d02be8fe6b5U, 0xbe34d337bea2f4bdU, 0x3d014982be192448U,
  0x3e1c33b03d93d7f8U, 0x3de323bc3e109a36U, 0x3da572133e5705b3U, 0xbc97e01e3cc51eebU,
  0xbe19c280bde04cc5U, 0xbcb3196ebcc61d61U, 0x3b48c3043daf7857U, 0x3d04c790bdc60925U,
  0xbda18598bdc095c6U, 0xbe700c26bdf1ebccU, 0xbe9e0785be4d276eU, 0xbe89bb16be9a097aU,
  0x3cdf7455be528441U, 0x3c3cb5b9bcb8e739U, 0x3c6eae99bca31f6fU, 0x3d59776b3dc2b0d0U,
  0xbdda102c3ac062c5U, 0xbdf4bcf6bdeccce2U, 0xbd2ca419bdbf851cU, 0xbb8380343d8132e8U,
  0xbc3c4b9f3d4a368aU, 0xbde6f8543d2581f6U, 0xbe56ab82be0b2b89U, 0xbec0d888be8cc332U,
  0xbeb07327be921774U, 0xbe839725be962f45U, 0x3dc134bbbe0b5a8cU, 0xbd45cb9a3d65309dU,
  0xbdcbdf0cbdf23177U, 0xbddf55a1be369e4bU, 0xbe921ca1bd7d070cU, 0xbe6a2d3abe790389U,
  0xbdb10708be490ddcU, 0xbd5c26a83d2e8095U, 0x3db234753bffc158U, 0xbe0cb447bc6c3428U,
  0xbe83b02bbe038699U, 0xbec127f3bebb533fU, 0xbe95cf8fbe85c659U, 0xbe6716a6bea5824bU,
  0xbd538d78bd0a8d3dU, 0xbd48146a3dcde41cU, 0xbe809ef4bdd2f50aU, 0xbe595682be6665f5U,
  0xbea99b59be789486U, 0xbed55ca9bea15b58U, 0xbdfe6148be445d00U, 0xbd21b2f7bdb67702U,
  0x3cde0a3fbdb1e114U, 0xbdd4851fbddc0d68U, 0xbe8e8972be8c7ce4U, 0xbec2e4d1beb10f35U,
  0xbe7b704fbea47a13U, 0xbe1be7adbe33722aU, 0xbcc0bd0ebb6920f2U, 0xbe063f86bcff8b26U,
  0xbe902d61be94f7e5U, 0xbe9582efbec4bde6U, 0xbef60de4bec00afcU, 0xbe800752bee2739bU,
  0xbdff7db3be5c63daU, 0x3d33a6973d8b5c2dU, 0xbd109d1cbd89ff5bU, 0xbd9f05bbbd7c713fU,
  0xbe3163d6be90d521U, 0xbe7a44e6be6d8a68U, 0xbe77145dbe347c30U, 0xbe3fd069be1d9e9bU,
  0xbc39bbba3bffb46eU, 0xbdfd9a8dbdd6eaf9U, 0xbe8cccbebdbdd8f2U, 0xbea48c0dbeae5b70U,
  0xbeb67254bece9c5aU, 0xbe5cb32abe8aa08eU, 0x3d21ee97bda1f878U, 0xbd2c85723ca68481U,
  0x3bcf3dc7bd22a6a8U, 0xbd805479bcd68f61U, 0xbe025515bdec2b48U, 0xbd4332bdbe0bff89U,
  0xbe1362f6bd9a85e1U, 0xbe54cf8bbd486feaU, 0xbddaa72cbdf8eacaU, 0x3b7bdb47bd0bb3c0U,
  0xbe119d95bdbf48f5U, 0xbe9dc927be5a446bU, 0xbee6e03abece9360U, 0xbe977db5be822610U,
  0x3d55f66cbdafe169U, 0xbc8d22c8bc99b6caU, 0x3d5280763c9b0b3cU, 0xbd2fb335bd2ead43U,
  0x3d427fb43d8aacbdU, 0x3e05c85b3e48a564U, 0xbcddd264bc42d29aU, 0xbdabfc3e3c7c81cfU,
  0xbdc4c76ebe13db45U, 0xbd162998bd8a540cU, 0xbe0afd7cbcd22394U, 0xbe93dc91be100bb2U,
  0xbe885da9bea0bcc6U, 0xbe2f022fbe509b26U, 0xbb8b8a34bc24c93aU, 0xbd601c353c99c6e8U,
  0xbc8920143d39eab2U, 0x3d8feddfbc83cb7bU, 0x3e662e373c9d3582U, 0x3e85bb693e65b3d6U,
  0x3d3e592e3e1fb471U, 0x3cc2b0623d7626bdU, 0x3d0a91043ca904eaU, 0x3d618af83d6d0e23U,
  0x3d829aacbd52f8cfU, 0xbde20b76bd6a777fU, 0xbe14b29bbe179abdU, 0xbe8d875bbe68a4b0U,
  0xbd9d9a88bc59e7d5U, 0x3d9083e33d2a0ce6U, 0x3d1f905e3d953661U, 0x3d8a22e7bd2a9577U,
  0x3e3495a53dff72b8U, 0x3df9c0793d633f12U, 0x3e8aa0023e2f2a8aU, 0x3e8aaf453e17739cU,
  0x3e6998103e32e454U, 0x3e1759fe3e6b2480U, 0x3d6df72f3e462c12U, 0xbd26aac53d82e50fU,
  0xbe1976c6bd26e067U, 0xbd8a2e37bd956e57U, 0xbd7eedf7bd16b658U, 0x3d30ac0abce7dbe8U,
  0xbdaf75833da88341U, 0x3bb5a8d03da5257fU, 0x3d23e17b3d18b794U, 0x3e0c40d43ce1035cU,
  0x3e227aff3e48f9c6U, 0x3e137e143e666dcaU, 0x3e926aad3e43d31cU, 0x3ea7b8ea3e906c22U,
  0x3e817da23e930973U, 0x3df8fecd3e00cef8U, 0x3d81a8283d43bb19U, 0x3d4ea3e5bce1e5f1U,
  0xbd8fcc0fbc90ef74U, 0xbd758c5e3d8b111fU, 0x3ce6935cbd822a30U, 0xbafd5b803cacb040U,
  0x3d758f5cbd84ce45U, 0x3d963b1c3d1e16ddU, 0x3dc0d9fb3b036805U, 0x3d6b93cf3df8d8dfU,
  0x3e1fc6093db87b21U, 0x3e11d52f3e80ba70U, 0x3e43e26f3e49fbf1U, 0x3da71d923e50a1c3U,
  0x3ca8ea17bc6326aaU, 0xbd46ffd5bd905713U, 0x3c912078bb40b500U, 0x3d51a4723daecdbbU,
  0x3ce1a7e43b056a80U, 0x3d968ed53c107258U, 0xbc8afec03d77f65eU, 0x3c10ed303d94936bU,
  0x3a9ae6403d05a698U, 0xbda6d480bd1223d2U, 0xbbf101c53d722fb7U, 0xbc7c90ad3d26bddbU,
  0xbd4067393d85ac97U, 0xbda062c03da6ed95U, 0x3d478c16bd03decdU, 0x3d24d712bd03f613U,
  0x3ccbe6d03c939c0cU, 0xbd1c8f60bd6867b1U, 0xbd9481033d5709beU, 0xbd8f09c2bd2a54c9U,
  0x3d74d588bd4dc2f7U, 0xbd0ed17dbd218d43U, 0x3d2f910ebcf0ef18U, 0xbdc14e4b396c4e5bU,
  0xbd052d81bb3e8a6eU, 0xbd9d0fa43d73f3a0U, 0x3d170504bd5d3d27U, 0x3d82540b3c8d02fcU,
  0x3ccd5ed23d7c6ec4U, 0xbd0b3c73394e611cU, 0xbbad5e00bdb0d2b5U, 0x3acec180bd88390cU,
  0x3d1903d6bd9c5ff1U, 0x3cd6bec7bd723511U, 0xbbe483b9bd940cbeU, 0x3bd0e88ebd4517a5U,
  0xbc1289bebd309392U, 0xbdf5a8e6be032ad6U, 0xbe9872f2be28ae2cU, 0xbe841f08be96fa1eU,
  0xbe9200a2be62994cU, 0xbe4f237abe1ed9ddU, 0x3c2913e1bdca991dU, 0xbc0d4e97bd79b904U,
  0xbd4e362cbd889727U, 0x3d50c592bd9a516fU, 0xbd3776d0bce52320U, 0xbd97ffbdbd0b5538U,
  0xbda98380bc8a641bU, 0xbd030466bcde3403U, 0xbe211fb3be4357d5U, 0xbe8c3db8bea261afU,
  0xbec1c35abec6e6e9U, 0xbec229c4bea4ccd0U, 0xbe9e862fbed08a14U, 0xbe90625dbe9544eaU,
  0xbe51ecd6be9cf33bU, 0x3c2e903fbdb532bbU, 0xbd0d3d5ebd936205U, 0xbc3ef5203d056c79U,
  0x3da15fa7bd7783e8U, 0x3da4e6d4bd16a41cU, 0xbdcf77d4bc9d695bU, 0xbe7b7315be03c447U,
  0xbe300db8bd6738d8U, 0x3c676d5fbdfbd257U, 0x3dc1b5aa3d40b476U, 0x3dad92f73d9e1c9fU,
  0xbde985633db01185U, 0xbcdc5b2dbd79b95bU, 0xbdc7e82fbda29853U, 0xbe3f875ebe3daf2fU,
  0xbcedb3b5bd292d5bU, 0xbd7a076abb85261bU, 0xbc13a1c03d9f72f1U, 0xbd2befa43d8aadb6U,
  0xbdfc31babe0e060cU, 0xbe379fb5be5f5707U, 0xbdbdbb49bcfb9080U, 0x3ced2c4ebdda2fdcU,
  0x3d33ae593e1ad6a6U, 0x3de21fe63e0fc7ebU, 0x3e1e71583d364d9eU, 0xbbfde3cb3c2b70efU,
  0xbdb3ea1d3c90afacU, 0xbe42311bbdf052c4U, 0xbd8dac98bdaa7206U, 0x3d0af41abce994b3U,
  0xbccd8ccb3d77452aU, 0xbd4181813d5c336bU, 0xbe4d6b84bdfbee70U, 0xbd40fb2dbe46f66aU,
  0xbd8307cbbd13701fU, 0x3bb58a1dbdcf764fU, 0x3d58a0553d879272U, 0x3d801e0cbd14816cU,
  0x3c6daafa3e1e5163U, 0xba6c8bfbbd03096dU, 0xbd12dd623d80b789U, 0x3d251253bdccee3aU,
  0x3dba3304bdcb8097U, 0x3d11f7a9bd38a53fU, 0x3d93e0ac3d0936faU, 0xbe50b395bca31ad3U,
  0xbe224197be2d8498U, 0xbbddbb6abc108e75U, 0x3c3788843c568d8bU, 0xbdcf4ce63d6c1032U,
  0xbdc56d93bd09b8d3U, 0x3d67d398bd0506edU, 0xbde084663b3e4e01U, 0xbc5354723d72361eU,
  0x3cf3d2053d714872U, 0x3def15a1bd2a4f4dU, 0xbdc114023cfe5260U, 0xbd8773b8bdb85c3cU,
  0xbdb5f14cbd5623acU, 0xbe3dde1fbd4583a3U, 0x3c8180c4bcd5361fU, 0x3c40057d3c134acaU,
  0x3d9b470b3cc43a7aU, 0x3c9b5214bc4a76a6U, 0xbc27ca4b3ddd864eU, 0xbdbdd84fbe17f2a8U,
  0x3ce6454bbc808466U, 0x3d56c1b8bcd4c761U, 0x3d88b2713d7f8c72U, 0x3e009a093e2ce02bU,
  0x3d62524d3dca930bU, 0x3cf7ef6cbca72157U, 0x3d90c061bd5ae0c4U, 0xbde205bebe0c8ddeU,
  0x3dac9fd33c0926a9U, 0x3da8f18e3e45aed8U, 0x3dd65aff3e132e0bU, 0x3d7a2a2f3da126f9U,
  0x3c80379e3d0f7d28U, 0xbe9e885dbe23ad57U, 0xbdc00809be7f7a75U, 0x3d1413b63cbf7208U,
  0x3dfbea8f3dac9bdbU, 0x3e0213613dc84b69U, 0xbe27b6f6bd66d632U, 0xbce510ed3dcb8a17U,
  0xbcd05658bd7df304U, 0xbe240c5b3afcc5b1U, 0xbcf11ab2bd904fceU, 0x3dd480f23d7269c2U,
  0x3e27892d3e37ecb5U, 0x3dc1711e3e6fc741U, 0x3cba44123df96f27U, 0xbe7a7fcdbdcdfaa3U,
  0xbe508ed2be83006bU, 0x3db927d23c9f39e6U, 0x3dd4b3ef3c18f1a6U, 0x3d36c5703dde6ee7U,
  0xbdb1c43ebd147920U, 0xbd8bce75bcf7e687U, 0xbc92ce053d047a06U, 0xbe3cbce7be149258U,
  0x3df1023a3c19b576U, 0x3e8c2e883e014e6eU, 0x3e1a22793e2fe841U, 0x3da7857b3df9d927U,
  0x3e03e9ea3dcc8ef6U, 0xbd3728373e1d7ca4U, 0xbe18ccf9be62950aU, 0xbc9e5c95bdea1618U,
  0x3d18b6fd3c9678b7U, 0x3e6844163e3aaffeU, 0x3d15a5a63e29e9c8U, 0xbd86f0a7bbcb4f7aU,
  0xbdb858043dae5ce5U, 0xbd6a2369bdd722cbU, 0x3dc1b693bd8af6e9U, 0x3dce98cc3dcdaae3U,
  0x3d9cef513be09000U, 0xbdf200c7bd9396e8U, 0x3e32402a3dd89008U, 0xbcb24e913db5572fU,
  0xbcddd372bb0f4512U, 0x3cc27fc7bcbc4494U, 0x3e34febb3e46943dU, 0x3e5ad8ab3e57317cU,
  0x3ded9e2a3e1ec0d4U, 0x3b446f0d3d2e8566U, 0xbdac8c093d5b5b76U, 0xbcb9e7f6bd5b433aU,
  0xbcce178abdd33ad5U, 0xbdf823debe0301d1U, 0xbdb09b81bdcc36ccU, 0xbd430cedbe34750eU,
  0x3e8f1a2a3e2dad19U, 0x3da9f73a3d2a164cU, 0xbdad00263d276988U, 0xbd1d1c1fbd98d89eU,
  0xbd9cba773d670f87U, 0x3d9d09acbb37b62fU, 0x3cdd8c7bbcf3a8d7U, 0xbd35a387bd3f8fd5U,
  0x3da232823cf139e4U, 0xbdd5bb2c3d9697d3U, 0xbe5ef017be7d24f0U, 0xbe96d98bbe4f1885U,
  0xbe6a0f9bbe868450U, 0x3cf25d9dbe271729U, 0x3e47c5d93e364324U, 0x3d5554093e48c0e7U,
  0xbd39e281bd1783d9U, 0xbce42377be0fea42U, 0xbe86c4bebe7fa248U, 0xbe8372dfbe9bdc9cU,
  0xbd9cc661be317bf3U, 0xbd04696ebd529007U, 0x3cde1645bda412ebU, 0xbd9d4c0bbdb86725U,
  0xbecf6f07be7d4d7fU, 0xbeb26248bea718c5U, 0xbe67f455be3c72ddU, 0x3d787bd7bdbab216U,
  0x3e52bffa3e0a92efU, 0xbce0ebf93e0a6848U, 0xbe43b32e3a657ca9U, 0xbe7962f1be2f3eafU,
  0xbe785d7ebe7143d3U, 0xbe9fd552be7da8faU, 0xbd98fd3fbe8ceaf9U, 0x3d352324bdba66b6U,
  0xbd91798e3da78cffU, 0xbdebf4a2bdc33102U, 0xbeb25aa6be7d657bU, 0xbe1ffdd8be3b4627U,
  0x3d0e86cbbcc0b9bcU, 0xbb99da1fbd026158U, 0x3e0b30c63e7ba4b3U, 0xbd036e9a3ce25988U,
  0xbe0debc0bc66f914U, 0xbe8c318bbe8d3f83U, 0xbe9fc46abeb349bfU, 0xbe30cb43be5bf6e5U,
  0xbe54a8c4be704227U, 0x3c23b864bd09e19eU, 0xbd3fae2cbd052cb2U, 0xbe16af40bd05520aU,
  0xbeb487f7beb2d979U, 0x3cb27f47be654221U, 0x3de230c23da426b8U, 0x3e1c722a3dda4d4dU,
  0x3df9e8cd3e5aed49U, 0xbd98ad9abdca1394U, 0xbdd908acbd904745U, 0xbe0f68d1be4dc822U,
  0xbe605d86be2d793bU, 0xbdeb3e63be4d800bU, 0xbebb41a6be06ddf4U, 0x3c794a97bdf64eaeU,
  0xbd5f8fadbc8c3cabU, 0xbe9f0c343cc4e22dU, 0xbe80f646beaf7a4fU, 0x3b7ad760bde99618U,
  0x3df6809d3dcffbacU, 0x3e0d1f1a3e187224U, 0xbc65dfba3df8c840U, 0xbce4523dbe0d89caU,
  0xbe1e8914be015811U, 0xbc6678e8be10283bU, 0xbe41b5babd7c8064U, 0xbcd8758b3cd36661U,
  0xbe922b8cbd9e573cU, 0x3d86cfccbddd50bcU, 0x3d7cd259bd2da69eU, 0xbe8e766ebdcdcf1aU,
  0xbb66d9eebe37d1aaU, 0x3c49e70abd8ec421U, 0x3d2865ef3d21e5a7U, 0xbd98ffa73dfd614eU,
  0xbe2f5b36bcc70534U, 0xbdd04d58be47d7f8U, 0xbd9d6ff6bd21c52dU, 0xbc8d53163cfe05caU,
  0x3c9841b1bc67dbb1U, 0xbcc8c4e5ba35bf4aU, 0xbe3a5ffabe5e3acfU, 0xbda91ce5be06e920U,
  0x3d9a89c1bda61f15U, 0xbe813500bd81ecffU, 0xbe10fbfebe8c1c65U, 0x3def8fd9b8fd7004U,
  0xbb0a27ed3c6dcc1dU, 0xbde25ee2bddf1634U, 0xbcfada97bddc6f03U, 0xbd0531cdbe08101cU,
  0xbd87cc59be00ff0cU, 0xbc887cc5bca8ee9fU, 0x3de092f03d991a05U, 0x3bbbb22c3cc1d3e4U,
  0xbe1f0b97be5dd1b7U, 0xbc06e6da3ce66a39U, 0xbdaa66553c8cca70U, 0xbea416a4bdc9a6f0U,
  0xbdac42f9be9f6cd1U, 0x3cb4b8d63c0bf44fU, 0xbca57b4dbd85e5adU, 0xbd65a3fe3b83b0f5U,
  0x3d4933ffbc680b16U, 0xbcfb5da1bd5c005cU, 0xbd1ab8a2bdd1013dU, 0xbceb1ac2bdd46ae7U,
  0x3d2289e83c8415a4U, 0xbda6d3053d228219U, 0xbdfee075be8abdfcU, 0xbd80432ebd69fdf8U,
  0x3da8520bbd7b06eaU, 0xbe3a389bbcdbfbdeU, 0xbe86aaa5be356099U, 0x3d5a926abb864566U,
  0xbcd5f7febda662c1U, 0x3c76bd053d152a03U, 0x3e2d39ad3da64939U, 0x3dacd18e3e0de855U,
  0x3d4070a9bd9219d9U, 0xbd7b2ea23bf1dd32U, 0x3d8e2476bd120395U, 0xbe0d8164bd927216U,
  0xbd24b050bdb0f9a4U, 0xbd82ca29bd247a0eU, 0xbd8caf78bcf3f03eU, 0xbe0997c83d23b1b0U,
  0xbec7d43ebe591854U, 0xbe234e8dbe92afceU, 0xbd3885543bd0c3bfU, 0x3db2ac5cbdc09307U,
  0x3e7095ef3df324c0U, 0x3e36c2ff3e30a0f8U, 0x3cc7dda83e4ca58bU, 0x3b06b5c93d3a83dfU,
  0x3c04e1023cfc6854U, 0xbde28731bd05bc06U, 0xbd731df1bdf3a8daU, 0xbcb5488c3cce5696U,
  0xbced29863c172268U, 0xbdec4548bd74bd9cU, 0xbe9d1e66be8349e8U, 0xbe82910cbeb6b1e9U,
  0xbdb3175dbcc6f8e5U, 0x3de295df3a865aa3U, 0x3da1ecee3d5f3c61U, 0x3e0f81c43dd48404U,
  0x3dcf6b693e0918e9U, 0x3e570ce53dba98e7U, 0xbe04949e3de78176U, 0xbcd138ff3cb19c0aU,
  0x3d13ab9cbdd2587bU, 0x3c2967483cbcde67U, 0xbd672088bcc3d4fcU, 0xbc666d723d7a5963U,
  0xbe2639d6be3203e2U, 0xbec57c33be8a2f71U, 0xbe5faa43becd255bU, 0xbe3856ddbe3c60a5U,
  0xbe3b9fa3be6914a8U, 0xbd8d2e8abcabf2a5U, 0xbcff7029bdad963cU, 0xbdee710bbd88dcecU,
  0xbe076772be006bcdU, 0xbdaeeb2dbe2bdeecU, 0xbbef6f163d03b463U, 0x3d3438f2bdb43fa5U,
  0x3da2e0f3bcff98feU, 0xbd89cd553da6612dU, 0xbdf0efe1bdd64c5aU, 0xbe10a3cfbe021f80U,
  0xbeac874ebe49d8b8U, 0xbeb84c58bec22b71U, 0xbeb1e295bebb68d6U, 0xbf05027ebec7699eU,
  0xbe84002abeb5a67fU, 0xbe8e300fbea74e44U, 0xbcb39f0dbe31e332U, 0x3c5352ffbd75a91bU,
  0x3d05c2a8bd66c57cU, 0xbd6c8cd6bcf1fef6U, 0x3d1470a4bd5116aeU, 0x3c3ca9903cf2d08cU,
  0xbd467dd73c06ea07U, 0xbda608173ce35c04U, 0xbcc89d253c5938cfU, 0xbd963a1b3d110e28U,
  0xbdd5a403bd5f958aU, 0xbc018dbfbba5d9a5U, 0xbe00a7aebb0bbaf6U, 0xbd38aadabd9362b0U,
  0x3c153a7e3cd2e8dbU, 0x3c17f97ebc486d41U, 0xbda11b473d03a1d8U, 0x3bcedcb0bd30b1afU,
  0x3d4ec98a3b845340U, 0xbce4100abdadef60U, 0x3d6d5faebd51cba0U, 0xbcd25c143d0b8a4aU,
  0xbd40285f3d9329a1U, 0xbbc780a0bd71c322U, 0xbd9a7ce1bd8f95c3U, 0xbd69c0eabd2cb9a9U,
  0xbc252d60bcb56248U, 0xbc71eaa8bd23581cU, 0xbd7efe743d811d69U, 0x3d80a12b3d6f8baeU,
  0xbdb04d90ba61b080U, 0xbd608a80bd8ee542U, 0xbd44a1cb3d4e935eU, 0xbd3e8a7b3c7c36f8U,
  0xbcd771b23d761f40U, 0x3d4c0fd3bd29cc8eU, 0xbd3bc60dbd1cd0fcU, 0xbc84eeb53d8d368cU,
  0xbcbbe54e3baee0bfU, 0x3d47b731bd8b94edU, 0xbd25ab5a3cd41613U, 0xbd984cffbd079889U,
  0xbd7c915a3d586179U, 0xbd94f4563d9de13eU, 0xbd1983cb3d230cdaU, 0x3cc857acbd99eb8bU,
  0xbd27b6d2bc1e4870U, 0xbd8b15b23d776a3aU, 0xbd7e1f7e3c0c03dcU, 0xbd8124c4bd88408aU,
  0xbdd8d8773d83180cU, 0xbd8ee6bfbd87e483U, 0xbe46a770be34f800U, 0xbe961185be35eaddU,
  0xbda74adbbe13c928U, 0xbdc59fc3bd49af14U, 0x3bc9903ebd9cf515U, 0xbdbcbf34bd85b09fU,
  0xbd3a3ddbbc9de5f2U, 0xbd918d3dbb11c060U, 0x3cf3cc98bd3f8888U, 0xbdb1c605bd1f722eU,
  0x3cc279f03c13ee47U, 0xbd8f92833d2ac53eU, 0xbe192856bdbd8639U, 0xbe6209f3bddb9212U,
  0xbeb205c3be961675U, 0xbf1bdaa9bf0ecffbU, 0xbee4309bbecc36aeU, 0xbe2b816dbe9a0466U,
  0xbe16e780be33175fU, 0xbddf2295be0af75cU, 0xbd74d5cabd0eefc4U, 0x3d92c88d3d86a84bU,
  0x3ce133f23d9d246fU, 0xbd95b9cbbc58a671U, 0xbd2437cd3d3fd8f4U, 0xbdb0a4abbcfd8eddU,
  0xbebd4718be24b38dU, 0xbf037030be9dce2eU, 0xbed18e76beb217bcU, 0xbf0c5b51beb83446U,
  0xbf05f2c6bf18e90fU, 0xbeff97a0bf04351aU, 0xbee23598bf0883c2U, 0xbe4fa7e5be9894b7U,
  0xbc868482be0a8ef0U, 0xbd9fd1753d8e4ed4U, 0xbd664115bbe2b5b0U, 0xbd54dc04bc8c378aU,
  0xbda39cf33c972829U, 0xbe9fa646be8f4608U, 0xbeb7f859becd6bf3U, 0xbd168cefbe4570a2U,
  0xbd302e52bd83a914U, 0xbe97979cbe1d12bfU, 0xbedaac6cbe9cfe50U, 0xbe9f0190bea06233U,
  0xbea80fbdbec5b931U, 0xbf14f56bbf156575U, 0xbdfce367bec450f0U, 0xbd986163bda3a6d0U,
  0x3ae40d823d03dd48U, 0x3cfefbd9bd5c9becU, 0xbea47c78be4cd51dU, 0xbead8fa3bed6d05fU,
  0xbe4fb34cbeaa3f1cU, 0xbca8a55cbca5590aU, 0x3e20eb5d3df35c65U, 0x3e38ccc03e4c4f58U,
  0x3e0f09cc3de715a1U, 0xbd90852a3dfb03e8U, 0xbe59ea0abe04b0bbU, 0xbf016639bebcf709U,
  0xbe974148bee6887aU, 0x3d8a2d30be1dc2feU, 0x3c991ad9bc6455a8U, 0xbe42ee66bd93cf2bU,
  0xbefc63b7be86dfcbU, 0xbe8f4c7ebe94be57U, 0xbd5c53b2be561e80U, 0xbd3265e3bbfddf50U,
  0x3e43acfb3e2afcb5U, 0x3ea5d7923eaec5edU, 0x3e1f411c3ecc2ba8U, 0xbd22ca143de15c68U,
  0xbdce21183d3fbd27U, 0xbeac49b5be75ef5fU, 0xbe999a8bbf013a2aU, 0xbd8e0e4abe052b2aU,
  0x3cb4e19e3d36d16fU, 0xbe32da74be0f8b3bU, 0xbe74e443be9301ffU, 0xbe8efd83be50e558U,
  0xbe15d493bd6a88a9U, 0xbd660228bded23f1U, 0x3d8e558ebd173095U, 0x3e77f4c93e309321U,
  0xbbf9f02e3da3f911U, 0xbd78ab62bd2c816bU, 0xbcb1a61fbe2c45a9U, 0xbeaff347be4578b6U,
  0xbec649bbbe9b5ccfU, 0x3c51b6a1be031ba5U, 0xbdec6e73bcf4413dU, 0xbe9af3ddbded903aU,
  0xbe6f76d1be9b0eebU, 0xbd055188bd6e29a2U, 0x3c3afdb7bda410a9U, 0xbd703a003c1356e5U,
  0xbbe0ce513d3aecacU, 0x3db24c793defeb33U, 0xbd3836b5bd9d4a8eU, 0xbd3b6019bd1f6f68U,
  0xbd8336dfbdd07892U, 0xbe9d14ffbe37f8ebU, 0xbea45515beecafeaU, 0x3ca51e35be6db813U,
  0xbdd5e482bd950bb1U, 0xbe5049f1be71764fU, 0xbd996212be311440U, 0x3d9fe0cd3d92523dU,
  0xbc8e46c83d92a9f4U, 0x3d97181d3e09bfa6U, 0xbd97d59b3d0f2bddU, 0xbe4c07a1be1bfdccU,
  0xbd25bb6bbc028b32U, 0xbca81ece3d09dd4aU, 0xbd57a8b33c4f1636U, 0xbe6344d5bd4bc734U,
  0xbe6d2d35bead4f07U, 0xbd0049a0bd8d5177U, 0xbd123cc8bd91646eU, 0xbe00eff1be5743efU,
  0x3e0772ffbdda23fbU, 0x3dc2b4393e0bdad8U, 0x3d8ca9c93e53309eU, 0x3de0e7d33e431de5U,
  0xbe040691bdc94035U, 0xbcb28f1fbc21b77dU, 0x3e7d89ff3dce7588U, 0x3e5d25c43dfd33afU,
  0x3dec3e5d3e66d339U, 0xbdedfdb63dbb4c58U, 0xbe7fc5a3be921d5bU, 0xbc22cfe7be058f49U,
  0xbddb654cbd95caaeU, 0xbe13a649be674967U, 0x3e2a4a823e3f3405U, 0x3e18e6d43e80e84cU,
  0x3e41419e3e4693edU, 0x3bf02dd03de11b41U, 0xbdc20cdfbe53e9d4U, 0x3dd04dbe3d979f6aU,
  0x3e5ca9d03e4345adU, 0x3ea797953e8be9b1U, 0x3e60b98d3e84c186U, 0xbdae54183dae1516U,
  0xbe5fa160be8ffda9U, 0xbdb96816be0bcd47U, 0xba7bc83ebd85a9c2U, 0xbc4df33abe25683bU,
  0x3e48cebe3e1e7bbbU, 0x3d1b51053e01daa7U, 0xbbe122723db9c6b1U, 0xbd6b62263d47f2bfU,
  0x3d38a3b8be2e96abU, 0x3e7a13573e038b9aU, 0x3e83fafb3eb9e4c3U, 0x3e53a62b3e4a5651U,
  0x3e5d886c3e6e5619U, 0xbdbf4fbc3d9cddd9U, 0xbe10fda2bea61a2fU, 0xbd89921abd0d9ee1U,
  0xbd9055703cb8a334U, 0xbd12405a3bb2d737U, 0x3da7ebec3e15bbd5U, 0x3d8ce48a3e3aba60U,
  0x3d0838a03dc75d4fU, 0xbdd8dff1bde494dcU, 0xbd966003bde641adU, 0x3dbb3f143d67fa10U,
  0x3e9639a33e6081c1U, 0x3cda916f3e0da0b4U, 0x3be05f1e3da2fd99U, 0xbec05656be32986dU,
  0xbe3f0fd2bed84b3aU, 0x3d0744b3bdb915abU, 0x3c5a38c43d761e61U, 0xbcb6ac7dbdbebe50U,
  0x3bba34ff3c2369baU, 0x3d671b693d419acdU, 0xbd97ce60bd95c455U, 0xbc2c7b48bc12b091U,
  0xbe3d4434bde07f79U, 0x3d2f2a92bdfe7108U, 0x3e2da54c3e2875aaU, 0x3c1b1056bc2e142aU,
  0xbe0bde71bcde7b17U, 0xbebee833be37e022U, 0xbe966831bf04bdf8U, 0xbd93c04ebdc30f2aU,
  0x3d099bb53ce39ceeU, 0xbc87d04cbd2e7092U, 0x3bb0312c3d17be1eU, 0xbd5b5519be07b276U,
  0xbd13e5ab3d34e4dcU, 0x3da5706e3c192ee7U, 0xbe6a54e1bd63479dU, 0x3d8956d9be5ece93U,
  0x3e0ca6583e43c58eU, 0xbde7594e3d532aedU, 0xbe55e274bdd52332U, 0xbec7348bbe90aecaU,
  0xbe4f3b5cbece9f22U, 0xbd1c3313bdd3f7e3U, 0x3d864f9abd25fe97U, 0xbdd0524dbdf8f43eU,
  0xbe3779c7be40e66dU, 0xbd03725abde70f1dU, 0x3d56a65b3a4e6b2cU, 0xbbc7e5b23ce26a66U,
  0xbdb323a7bda0b5d8U, 0x3d9dfdf2bd74e734U, 0xbd2974433ad2ef4dU, 0xbe1d96e2bddb464cU,
  0xbe9a187ebe347a15U, 0xbebb8b39beb69412U, 0xbe6dbec8bec0f83aU, 0xbc8d1bebbe0812c9U,
  0x3ce13b85bd6c804eU, 0xbe88336ebd965eb0U, 0xbe8a59c8be588fc5U, 0xbd842517bde1651dU,
  0xbdc39599be03287eU, 0xbda291a23df5ecf5U, 0xbe02eeafbe365877U, 0x3da7cf17bc966876U,
  0xbdfbfaaabd9df988U, 0xbc75288ebdbd6bdaU, 0xbe475dafbe0605c3U, 0xbeb531abbead0bc8U,
  0xbe0a3a30becd6fb8U, 0x3d9517fcbdc648a3U, 0x3d86e0babd99ce80U, 0xbe076f0abdbe9c8eU,
  0xbe5a33d8bea1a6a0U, 0xbe5593a4be56ba6cU, 0xbe8820bfbe77d7dfU, 0xbe81e9bebeb6357eU,
  0xbe43fa05be894b67U, 0xbda93b65bdf933e0U, 0xbe0992f8bdcb840eU, 0xbcc19cd6be1884c2U,
  0xbe2473c0bd67ce70U, 0xbe5fdb2ebe377c1dU, 0xba90d453be616b19U, 0x3ca5a8fbbdc375dfU,
  0xbca8767ebd5c6666U, 0xbe4b01bebd811fa0U, 0xbe2fe878be8e50c8U, 0xbe9faccfbe7843d7U,
  0xbea80edfbe9751c5U, 0xbee514f1beba151fU, 0xbe3f553bbeaa11a3U, 0xbde8332cbe2b9d35U,
  0xbe336b5cbd7a3903U, 0xbe48ff4bbe634c4bU, 0xbe58eeaabe389faeU, 0xbdf49283bdfca2afU,
  0x3d58f785bd1f788dU, 0xbdac1fa5bdac117eU, 0x3c36f10abc0d58e9U, 0xbe05d7d13d245fa1U,
  0xbe3673a1be8d9b1aU, 0xbeb07fefbe4611c3U, 0xbe961001be5ba425U, 0xbe87c105be7bd24aU,
  0xbe4cf260be40da86U, 0xbe4a7fbabe4bc155U, 0xbdeec414be34b2edU, 0xbe507911be77fd91U,
  0xbe2c1347bdcd693fU, 0xbdf5875abe2de06cU, 0x3cd4b555bd988055U, 0xbb352749bd952bdcU,
  0x3c10d391bda9cfd0U, 0xbd7bf3103d2b7474U, 0xbe5b756ebe43f490U, 0xbe7ed568be07c99bU,
  0xbc86251ebd933642U, 0xbe33df05bd325b28U, 0xbe2b23b5bc627e43U, 0xbe240ad3bdc80e97U,
  0xbe2c0ea7be2e0a80U, 0xbe2e5301bdf4290aU, 0x3b4a3621bd2601c2U, 0x3da62e5d3d043d3bU,
  0x3d8b01ec3d655171U, 0xbd7d3dbbbdc36c40U, 0x3d56cc4abbc809f0U, 0x3b7bef103d06a8dcU,
  0xbe55aef2be4188adU, 0xbe08f58fbe1ce775U, 0xbe157b6f3d0982bcU, 0xbdc12ba8bd84615bU,
  0xbdfb0b86bcf326c3U, 0xbe28e1c2bdc6581dU, 0xbe335468bddf0088U, 0xbdafe9c2be16960bU,
  0x3d1e68db3bf57bb7U, 0x3e3598353e524440U, 0x3a80fd3e3d7a840dU, 0xbcecb536bdb9836fU,
  0x3cb5b64c3d8ea59dU, 0xbdb30f90bcae6adeU, 0xbd179b0ebd270da3U, 0x3cda89b43d6e8bb0U,
  0x3d3f38703c3deb17U, 0xbdd7fb7dbd34c7d3U, 0xbe51fc8ebdeac8caU, 0xbde2ea70be436b15U,
  0x3ba561adbd1dcf1dU, 0x3dd5dc733e0bca5dU, 0x3e5889ee3e922af1U, 0x3e3cee4f3e6b627eU,
  0x3d7ddc5cba296068U, 0x3d5727c6bd0aa35eU, 0x3da0fc53bc8d29e0U, 0xbd838700bd008809U,
  0x3c868b12bd23c2f7U, 0x3dace9c63de28353U, 0x3e0c6f033e4008abU, 0x3d9fd89a3e03cda0U,
  0x3dd1a9803d3a50b5U, 0x3d83fb773df6840aU, 0x3e1ea77a3df258b9U, 0x3eb7aa4d3e2dc80fU,
  0x3e48d9f03ebc363cU, 0xbc93f3b23de75d8eU, 0xbdabfa1f3dab2a0dU, 0xbd78e4febd5cf05bU,
  0xbca9dd4c3d98b0bbU, 0xbc47f8c03d847481U, 0x3dfce30c3bc3bd11U, 0x3d8731483da10da0U,
  0x3e0f716c3e08c6f2U, 0x3dc764823e86b1c3U, 0x3ea285603ea3db6fU, 0x3e1762d23eaad99bU,
  0x3e7d58f13e33d722U, 0x3ddf75913e03642dU, 0x3e319c6b3e386cb8U, 0xbd78d35fbcababdeU,
  0x3b0e44ec3d1df31cU, 0xbd03a2043da2bb95U, 0xbd909be2bd3d85d3U, 0x3da35bef3d7d6936U,
  0x3c9d5da63d759d3bU, 0xbbd823d7bd61183dU, 0xbd93aa79bd5bb5e7U, 0x3c815debbd24f5f3U,
  0xbe07fac3bcccd2f8U, 0xbd10ca05bd263a19U, 0xbe223275bdbee6daU, 0xbdae5fffbdaf0c2cU,
  0x3c9e68a4bd929b31U, 0x3d4c3c0dbd3c89ceU, 0xbd21e7983d9bc0cdU, 0xbc0d33503d96d175U,
  0x3eb728d0bea2a4a9U, 0xbe5b3a2b3c81685eU, 0x3f28070d3d66e9e4U, 0x3eb8f337bdc7da7eU,
  0xbe02f2f3bf498d41U,
};


ai_buffer g_network_data_map_activations[AI_NETWORK_DATA_ACTIVATIONS_COUNT] = {
  AI_BUFFER_INIT(AI_FLAG_NONE,  AI_BUFFER_FORMAT_U8,
    AI_BUFFER_SHAPE_INIT(AI_SHAPE_BCWH, 4, 1, 40, 1, 1),
    40, NULL, NULL),    /* heap_overlay_pool */
  };
ai_buffer g_network_data_map_weights[AI_NETWORK_DATA_WEIGHTS_COUNT] = {
  AI_BUFFER_INIT(AI_FLAG_NONE,  AI_BUFFER_FORMAT_U8,
    AI_BUFFER_SHAPE_INIT(AI_SHAPE_BCWH, 4, 1, 31400, 1, 1),
    31400, NULL, s_network_network_weights_array_u64),   /* network_weights_array */
  };


/*!
 * @brief Get network activations buffer initialized struct.
 * @ingroup network_data
 * @param[in] ptr a pointer to the activations array storage area
 * @return an ai_buffer initialized struct
 */
AI_DEPRECATED
AI_API_ENTRY
ai_buffer ai_network_data_activations_buffer_get(const ai_handle ptr)
{
  ai_buffer buf = AI_BUFFER_INIT(
    AI_FLAG_NONE, AI_BUFFER_FORMAT_U8,
    AI_BUFFER_SHAPE_INIT(AI_SHAPE_BCWH, 4, 1, AI_NETWORK_DATA_ACTIVATIONS_SIZE, 1, AI_NETWORK_DATA_ACTIVATIONS_COUNT),
    AI_NETWORK_DATA_ACTIVATIONS_SIZE,
    NULL, ptr);
  return buf;
}

/*!
 * @brief Get network weights buffer initialized struct.
 * @ingroup network_data
 * @param[in] ptr a pointer to the weights array storage area
 * @return an ai_buffer initialized struct
 */
AI_DEPRECATED
AI_API_ENTRY
ai_buffer ai_network_data_weights_buffer_get(const ai_handle ptr)
{
  ai_buffer buf = AI_BUFFER_INIT(
    AI_FLAG_NONE, AI_BUFFER_FORMAT_U8|AI_BUFFER_FMT_FLAG_CONST,
    AI_BUFFER_SHAPE_INIT(AI_SHAPE_BCWH, 4, 1, AI_NETWORK_DATA_WEIGHTS_SIZE, 1, AI_NETWORK_DATA_WEIGHTS_COUNT),
    AI_NETWORK_DATA_WEIGHTS_SIZE,
    NULL, ptr);
  return buf;
}


/*!
 * @brief Get network weights array pointer as a handle ptr.
 * @ingroup network_data
 * @return a ai_handle pointer to the weights array
 */
AI_DEPRECATED
AI_API_ENTRY
ai_handle ai_network_data_weights_get(void)
{
  static const ai_u8* const s_network_weights_table[1 + 2] = {
    AI_PTR(AI_MAGIC_MARKER),
    AI_PTR(s_network_network_weights_array_u64),
    AI_PTR(AI_MAGIC_MARKER)
  };

  return AI_HANDLE_PTR(s_network_weights_table);

}


/*!
 * @brief Get network params configuration data structure.
 * @ingroup network_data
 * @return true if a valid configuration is present, false otherwise
 */
AI_API_ENTRY
ai_bool ai_network_data_params_get(ai_network_params* params)
{
  if (!params) return false;
  
  const ai_buffer_array map_activations = 
    AI_BUFFER_ARRAY_OBJ_INIT(AI_FLAG_NONE, AI_NETWORK_DATA_ACTIVATIONS_COUNT, g_network_data_map_activations);
  
  const ai_buffer_array map_weights = 
    AI_BUFFER_ARRAY_OBJ_INIT(AI_FLAG_NONE, AI_NETWORK_DATA_WEIGHTS_COUNT, g_network_data_map_weights);

  return ai_platform_bind_network_params(params, &map_weights, &map_activations);
}


AI_API_DECLARE_END
